{
  "version": "1.0",
  "truncation": {
    "direction": "Right",
    "max_length": 128,
    "strategy": "LongestFirst",
    "stride": 0
  },
  "padding": null,
  "added_tokens": [
    {
      "id": 0,
      "content": "<unk>",
      "single_word": false,
      "lstrip": false,
      "rstrip": false,
      "normalized": false,
      "special": true
    },
    {
      "id": 1,
      "content": "<s>",
      "single_word": false,
      "lstrip": false,
      "rstrip": false,
      "normalized": false,
      "special": true
    },
    {
      "id": 2,
      "content": "</s>",
      "single_word": false,
      "lstrip": false,
      "rstrip": false,
      "normalized": false,
      "special": true
    }
  ],
  "normalizer": {
    "type": "Sequence",
    "normalizers": [
      {
        "type": "Replace",
        "pattern": {
          "Regex": " {2,}"
        },
        "content": " "
      }
    ]
  },
  "pre_tokenizer": {
    "type": "Metaspace",
    "replacement": "▁",
    "prepend_scheme": "always",
    "split": true
  },
  "post_processor": {
    "type": "TemplateProcessing",
    "single": [
      {
        "Sequence": {
          "id": "A",
          "type_id": 0
        }
      },
      {
        "SpecialToken": {
          "id": "</s>",
          "type_id": 0
        }
      }
    ],
    "pair": [
      {
        "Sequence": {
          "id": "A",
          "type_id": 0
        }
      },
      {
        "SpecialToken": {
          "id": "</s>",
          "type_id": 0
        }
      },
      {
        "Sequence": {
          "id": "B",
          "type_id": 0
        }
      },
      {
        "SpecialToken": {
          "id": "</s>",
          "type_id": 0
        }
      }
    ],
    "special_tokens": {
      "</s>": {
        "id": "</s>",
        "ids": [
          2
        ],
        "tokens": [
          "</s>"
        ]
      }
    }
  },
  "decoder": {
    "type": "Metaspace",
    "replacement": "▁",
    "prepend_scheme": "always",
    "split": true
  },
  "model": {
    "type": "Unigram",
    "unk_id": 0,
    "vocab": [
      [
        "<unk>",
        0.0
      ],
      [
        "<s>",
        0.0
      ],
      [
        "</s>",
        0.0
      ],
      [
        "\n",
        0.0
      ],
      [
        "<2ace>",
        0.0
      ],
      [
        "<2ace_Arab>",
        0.0
      ],
      [
        "<2af>",
        0.0
      ],
      [
        "<2am>",
        0.0
      ],
      [
        "<2an>",
        0.0
      ],
      [
        "<2ar>",
        0.0
      ],
      [
        "<2ary>",
        0.0
      ],
      [
        "<2arz>",
        0.0
      ],
      [
        "<2as>",
        0.0
      ],
      [
        "<2az>",
        0.0
      ],
      [
        "<2ba>",
        0.0
      ],
      [
        "<2ban>",
        0.0
      ],
      [
        "<2bar>",
        0.0
      ],
      [
        "<2be>",
        0.0
      ],
      [
        "<2bg>",
        0.0
      ],
      [
        "<2bho>",
        0.0
      ],
      [
        "<2bjn>",
        0.0
      ],
      [
        "<2bjn_Arab>",
        0.0
      ],
      [
        "<2bm>",
        0.0
      ],
      [
        "<2bn>",
        0.0
      ],
      [
        "<2br>",
        0.0
      ],
      [
        "<2bs>",
        0.0
      ],
      [
        "<2bug>",
        0.0
      ],
      [
        "<2ca>",
        0.0
      ],
      [
        "<2ceb>",
        0.0
      ],
      [
        "<2crh_Latn>",
        0.0
      ],
      [
        "<2cs>",
        0.0
      ],
      [
        "<2cy>",
        0.0
      ],
      [
        "<2da>",
        0.0
      ],
      [
        "<2de>",
        0.0
      ],
      [
        "<2din>",
        0.0
      ],
      [
        "<2dv>",
        0.0
      ],
      [
        "<2dz>",
        0.0
      ],
      [
        "<2el>",
        0.0
      ],
      [
        "<2en>",
        0.0
      ],
      [
        "<2eo>",
        0.0
      ],
      [
        "<2es>",
        0.0
      ],
      [
        "<2et>",
        0.0
      ],
      [
        "<2eu>",
        0.0
      ],
      [
        "<2fa>",
        0.0
      ],
      [
        "<2fi>",
        0.0
      ],
      [
        "<2fo>",
        0.0
      ],
      [
        "<2fr>",
        0.0
      ],
      [
        "<2fr_CA>",
        0.0
      ],
      [
        "<2fur>",
        0.0
      ],
      [
        "<2fuv>",
        0.0
      ],
      [
        "<2fy>",
        0.0
      ],
      [
        "<2ga>",
        0.0
      ],
      [
        "<2gd>",
        0.0
      ],
      [
        "<2gl>",
        0.0
      ],
      [
        "<2gn>",
        0.0
      ],
      [
        "<2gu>",
        0.0
      ],
      [
        "<2ha>",
        0.0
      ],
      [
        "<2he>",
        0.0
      ],
      [
        "<2hi>",
        0.0
      ],
      [
        "<2hne>",
        0.0
      ],
      [
        "<2hr>",
        0.0
      ],
      [
        "<2hu>",
        0.0
      ],
      [
        "<2hy>",
        0.0
      ],
      [
        "<2id>",
        0.0
      ],
      [
        "<2ig>",
        0.0
      ],
      [
        "<2io>",
        0.0
      ],
      [
        "<2is>",
        0.0
      ],
      [
        "<2it>",
        0.0
      ],
      [
        "<2iu>",
        0.0
      ],
      [
        "<2ja>",
        0.0
      ],
      [
        "<2jv>",
        0.0
      ],
      [
        "<2ka>",
        0.0
      ],
      [
        "<2kk>",
        0.0
      ],
      [
        "<2km>",
        0.0
      ],
      [
        "<2kn>",
        0.0
      ],
      [
        "<2ko>",
        0.0
      ],
      [
        "<2kr>",
        0.0
      ],
      [
        "<2kr_Arab>",
        0.0
      ],
      [
        "<2ks>",
        0.0
      ],
      [
        "<2ks_Deva>",
        0.0
      ],
      [
        "<2ku>",
        0.0
      ],
      [
        "<2ky>",
        0.0
      ],
      [
        "<2la>",
        0.0
      ],
      [
        "<2lb>",
        0.0
      ],
      [
        "<2li>",
        0.0
      ],
      [
        "<2lij>",
        0.0
      ],
      [
        "<2lmo>",
        0.0
      ],
      [
        "<2lt>",
        0.0
      ],
      [
        "<2ltg>",
        0.0
      ],
      [
        "<2lv>",
        0.0
      ],
      [
        "<2mag>",
        0.0
      ],
      [
        "<2mg>",
        0.0
      ],
      [
        "<2mi>",
        0.0
      ],
      [
        "<2mk>",
        0.0
      ],
      [
        "<2ml>",
        0.0
      ],
      [
        "<2mn>",
        0.0
      ],
      [
        "<2mni>",
        0.0
      ],
      [
        "<2mr>",
        0.0
      ],
      [
        "<2ms>",
        0.0
      ],
      [
        "<2mt>",
        0.0
      ],
      [
        "<2mwl>",
        0.0
      ],
      [
        "<2my>",
        0.0
      ],
      [
        "<2>",
        0.0
      ],
      [
        "<2nds>",
        0.0
      ],
      [
        "<2nds_NL>",
        0.0
      ],
      [
        "<2ne>",
        0.0
      ],
      [
        "<2nl>",
        0.0
      ],
      [
        "<2nn>",
        0.0
      ],
      [
        "<2no>",
        0.0
      ],
      [
        "<2nus>",
        0.0
      ],
      [
        "<2oc>",
        0.0
      ],
      [
        "<2or>",
        0.0
      ],
      [
        "<2pa>",
        0.0
      ],
      [
        "<2pl>",
        0.0
      ],
      [
        "<2prs>",
        0.0
      ],
      [
        "<2ps>",
        0.0
      ],
      [
        "<2pt>",
        0.0
      ],
      [
        "<2ro>",
        0.0
      ],
      [
        "<2ru>",
        0.0
      ],
      [
        "<2rw>",
        0.0
      ],
      [
        "<2sc>",
        0.0
      ],
      [
        "<2scn>",
        0.0
      ],
      [
        "<2sd>",
        0.0
      ],
      [
        "<2se>",
        0.0
      ],
      [
        "<2sh>",
        0.0
      ],
      [
        "<2shn>",
        0.0
      ],
      [
        "<2si>",
        0.0
      ],
      [
        "<2en_xx_simple>",
        0.0
      ],
      [
        "<2sk>",
        0.0
      ],
      [
        "<2sl>",
        0.0
      ],
      [
        "<2so>",
        0.0
      ],
      [
        "<2sq>",
        0.0
      ],
      [
        "<2sr>",
        0.0
      ],
      [
        "<2sv>",
        0.0
      ],
      [
        "<2sw>",
        0.0
      ],
      [
        "<2szl>",
        0.0
      ],
      [
        "<2ta>",
        0.0
      ],
      [
        "<2taq>",
        0.0
      ],
      [
        "<2taq_Tfng>",
        0.0
      ],
      [
        "<2te>",
        0.0
      ],
      [
        "<2tg>",
        0.0
      ],
      [
        "<2th>",
        0.0
      ],
      [
        "<2tk>",
        0.0
      ],
      [
        "<2fil>",
        0.0
      ],
      [
        "<2tr>",
        0.0
      ],
      [
        "<2tt>",
        0.0
      ],
      [
        "<2tzm>",
        0.0
      ],
      [
        "<2ug>",
        0.0
      ],
      [
        "<2uk>",
        0.0
      ],
      [
        "<2ur>",
        0.0
      ],
      [
        "<2uz>",
        0.0
      ],
      [
        "<2vec>",
        0.0
      ],
      [
        "<2vi>",
        0.0
      ],
      [
        "<2wa>",
        0.0
      ],
      [
        "<2wuu>",
        0.0
      ],
      [
        "<2xh>",
        0.0
      ],
      [
        "<2yi>",
        0.0
      ],
      [
        "<2yo>",
        0.0
      ],
      [
        "<2zh>",
        0.0
      ],
      [
        "<2zh_Hant>",
        0.0
      ],
      [
        "<2zu>",
        0.0
      ],
      [
        "<2abt>",
        0.0
      ],
      [
        "<2acf>",
        0.0
      ],
      [
        "<2ada>",
        0.0
      ],
      [
        "<2adh>",
        0.0
      ],
      [
        "<2ady>",
        0.0
      ],
      [
        "<2agr>",
        0.0
      ],
      [
        "<2ahk>",
        0.0
      ],
      [
        "<2ak>",
        0.0
      ],
      [
        "<2akb>",
        0.0
      ],
      [
        "<2alt>",
        0.0
      ],
      [
        "<2alz>",
        0.0
      ],
      [
        "<2amu>",
        0.0
      ],
      [
        "<2ang>",
        0.0
      ],
      [
        "<2ann>",
        0.0
      ],
      [
        "<2ape>",
        0.0
      ],
      [
        "<2arn>",
        0.0
      ],
      [
        "<2av>",
        0.0
      ],
      [
        "<2awa>",
        0.0
      ],
      [
        "<2ay>",
        0.0
      ],
      [
        "<2az_RU>",
        0.0
      ],
      [
        "<2bas>",
        0.0
      ],
      [
        "<2bbc>",
        0.0
      ],
      [
        "<2bci>",
        0.0
      ],
      [
        "<2ber>",
        0.0
      ],
      [
        "<2ber_Latn>",
        0.0
      ],
      [
        "<2bew>",
        0.0
      ],
      [
        "<2bg_Latn>",
        0.0
      ],
      [
        "<2bgp>",
        0.0
      ],
      [
        "<2bi>",
        0.0
      ],
      [
        "<2bik>",
        0.0
      ],
      [
        "<2bim>",
        0.0
      ],
      [
        "<2bn_Latn>",
        0.0
      ],
      [
        "<2bo>",
        0.0
      ],
      [
        "<2bqc>",
        0.0
      ],
      [
        "<2bru>",
        0.0
      ],
      [
        "<2brx>",
        0.0
      ],
      [
        "<2bts>",
        0.0
      ],
      [
        "<2btx>",
        0.0
      ],
      [
        "<2bua>",
        0.0
      ],
      [
        "<2bus>",
        0.0
      ],
      [
        "<2bzj>",
        0.0
      ],
      [
        "<2cab>",
        0.0
      ],
      [
        "<2cac>",
        0.0
      ],
      [
        "<2cak>",
        0.0
      ],
      [
        "<2cbk>",
        0.0
      ],
      [
        "<2cce>",
        0.0
      ],
      [
        "<2ce>",
        0.0
      ],
      [
        "<2cfm>",
        0.0
      ],
      [
        "<2ch>",
        0.0
      ],
      [
        "<2chk>",
        0.0
      ],
      [
        "<2chm>",
        0.0
      ],
      [
        "<2chr>",
        0.0
      ],
      [
        "<2ckb>",
        0.0
      ],
      [
        "<2cnh>",
        0.0
      ],
      [
        "<2co>",
        0.0
      ],
      [
        "<2cr_Latn>",
        0.0
      ],
      [
        "<2crh>",
        0.0
      ],
      [
        "<2crs>",
        0.0
      ],
      [
        "<2ctd_Latn>",
        0.0
      ],
      [
        "<2ctu>",
        0.0
      ],
      [
        "<2cuk>",
        0.0
      ],
      [
        "<2cv>",
        0.0
      ],
      [
        "<2dje>",
        0.0
      ],
      [
        "<2djk>",
        0.0
      ],
      [
        "<2dln>",
        0.0
      ],
      [
        "<2doi>",
        0.0
      ],
      [
        "<2dov>",
        0.0
      ],
      [
        "<2dtp>",
        0.0
      ],
      [
        "<2zxx_xx_dtynoise>",
        0.0
      ],
      [
        "<2dwr>",
        0.0
      ],
      [
        "<2dyu>",
        0.0
      ],
      [
        "<2ee>",
        0.0
      ],
      [
        "<2el_Latn>",
        0.0
      ],
      [
        "<2emp>",
        0.0
      ],
      [
        "<2enq>",
        0.0
      ],
      [
        "<2bum>",
        0.0
      ],
      [
        "<2ff>",
        0.0
      ],
      [
        "<2ffm>",
        0.0
      ],
      [
        "<2fip>",
        0.0
      ],
      [
        "<2fj>",
        0.0
      ],
      [
        "<2fon>",
        0.0
      ],
      [
        "<2frp>",
        0.0
      ],
      [
        "<2gag>",
        0.0
      ],
      [
        "<2gbm>",
        0.0
      ],
      [
        "<2gof>",
        0.0
      ],
      [
        "<2gom>",
        0.0
      ],
      [
        "<2gom_Latn>",
        0.0
      ],
      [
        "<2gor>",
        0.0
      ],
      [
        "<2grc>",
        0.0
      ],
      [
        "<2gsw>",
        0.0
      ],
      [
        "<2gu_Latn>",
        0.0
      ],
      [
        "<2gub>",
        0.0
      ],
      [
        "<2guc>",
        0.0
      ],
      [
        "<2guh>",
        0.0
      ],
      [
        "<2gui>",
        0.0
      ],
      [
        "<2gv>",
        0.0
      ],
      [
        "<2gvl>",
        0.0
      ],
      [
        "<2gym>",
        0.0
      ],
      [
        "<2haw>",
        0.0
      ],
      [
        "<2hi_Latn>",
        0.0
      ],
      [
        "<2hif>",
        0.0
      ],
      [
        "<2hil>",
        0.0
      ],
      [
        "<2hmn>",
        0.0
      ],
      [
        "<2ho>",
        0.0
      ],
      [
        "<2ht>",
        0.0
      ],
      [
        "<2hui>",
        0.0
      ],
      [
        "<2hus>",
        0.0
      ],
      [
        "<2hvn>",
        0.0
      ],
      [
        "<2iba>",
        0.0
      ],
      [
        "<2ibb>",
        0.0
      ],
      [
        "<2ify>",
        0.0
      ],
      [
        "<2ilo>",
        0.0
      ],
      [
        "<2inb>",
        0.0
      ],
      [
        "<2iso>",
        0.0
      ],
      [
        "<2ium>",
        0.0
      ],
      [
        "<2izz>",
        0.0
      ],
      [
        "<2jac>",
        0.0
      ],
      [
        "<2jam>",
        0.0
      ],
      [
        "<2jiv>",
        0.0
      ],
      [
        "<2jvn>",
        0.0
      ],
      [
        "<2kaa>",
        0.0
      ],
      [
        "<2kaa_Latn>",
        0.0
      ],
      [
        "<2kac>",
        0.0
      ],
      [
        "<2kbd>",
        0.0
      ],
      [
        "<2kbp>",
        0.0
      ],
      [
        "<2kek>",
        0.0
      ],
      [
        "<2kg>",
        0.0
      ],
      [
        "<2kha>",
        0.0
      ],
      [
        "<2kj>",
        0.0
      ],
      [
        "<2kjg>",
        0.0
      ],
      [
        "<2kjh>",
        0.0
      ],
      [
        "<2kl>",
        0.0
      ],
      [
        "<2kmb>",
        0.0
      ],
      [
        "<2kmz_Latn>",
        0.0
      ],
      [
        "<2kn_Latn>",
        0.0
      ],
      [
        "<2knj>",
        0.0
      ],
      [
        "<2koi>",
        0.0
      ],
      [
        "<2kos>",
        0.0
      ],
      [
        "<2krc>",
        0.0
      ],
      [
        "<2kri>",
        0.0
      ],
      [
        "<2ksd>",
        0.0
      ],
      [
        "<2ksw>",
        0.0
      ],
      [
        "<2ktu>",
        0.0
      ],
      [
        "<2kum>",
        0.0
      ],
      [
        "<2kv>",
        0.0
      ],
      [
        "<2kw>",
        0.0
      ],
      [
        "<2kwi>",
        0.0
      ],
      [
        "<2laj>",
        0.0
      ],
      [
        "<2lg>",
        0.0
      ],
      [
        "<2lhu>",
        0.0
      ],
      [
        "<2ln>",
        0.0
      ],
      [
        "<2lo>",
        0.0
      ],
      [
        "<2lrc>",
        0.0
      ],
      [
        "<2lu>",
        0.0
      ],
      [
        "<2lus>",
        0.0
      ],
      [
        "<2mad>",
        0.0
      ],
      [
        "<2mai>",
        0.0
      ],
      [
        "<2mak>",
        0.0
      ],
      [
        "<2mam>",
        0.0
      ],
      [
        "<2mas>",
        0.0
      ],
      [
        "<2maz>",
        0.0
      ],
      [
        "<2mbt>",
        0.0
      ],
      [
        "<2mdf>",
        0.0
      ],
      [
        "<2meo>",
        0.0
      ],
      [
        "<2meu>",
        0.0
      ],
      [
        "<2mfe>",
        0.0
      ],
      [
        "<2mgh>",
        0.0
      ],
      [
        "<2mh>",
        0.0
      ],
      [
        "<2min>",
        0.0
      ],
      [
        "<2miq>",
        0.0
      ],
      [
        "<2mkn>",
        0.0
      ],
      [
        "<2ml_Latn>",
        0.0
      ],
      [
        "<2mps>",
        0.0
      ],
      [
        "<2mqy>",
        0.0
      ],
      [
        "<2mrj>",
        0.0
      ],
      [
        "<2mrw>",
        0.0
      ],
      [
        "<2ms_Arab>",
        0.0
      ],
      [
        "<2ms_Arab_BN>",
        0.0
      ],
      [
        "<2msb>",
        0.0
      ],
      [
        "<2msi>",
        0.0
      ],
      [
        "<2msm>",
        0.0
      ],
      [
        "<2myv>",
        0.0
      ],
      [
        "<2nan_Latn_TW>",
        0.0
      ],
      [
        "<2ndc_ZW>",
        0.0
      ],
      [
        "<2new>",
        0.0
      ],
      [
        "<2ngu>",
        0.0
      ],
      [
        "<2nhe>",
        0.0
      ],
      [
        "<2nia>",
        0.0
      ],
      [
        "<2nij>",
        0.0
      ],
      [
        "<2niq>",
        0.0
      ],
      [
        "<2nnb>",
        0.0
      ],
      [
        "<2noa>",
        0.0
      ],
      [
        "<2nog>",
        0.0
      ],
      [
        "<2nr>",
        0.0
      ],
      [
        "<2nso>",
        0.0
      ],
      [
        "<2nut>",
        0.0
      ],
      [
        "<2nv>",
        0.0
      ],
      [
        "<2ny>",
        0.0
      ],
      [
        "<2nyu>",
        0.0
      ],
      [
        "<2nzi>",
        0.0
      ],
      [
        "<2oj>",
        0.0
      ],
      [
        "<2om>",
        0.0
      ],
      [
        "<2os>",
        0.0
      ],
      [
        "<2otq>",
        0.0
      ],
      [
        "<2pag>",
        0.0
      ],
      [
        "<2pap>",
        0.0
      ],
      [
        "<2pau>",
        0.0
      ],
      [
        "<2pck>",
        0.0
      ],
      [
        "<2pis>",
        0.0
      ],
      [
        "<2pon>",
        0.0
      ],
      [
        "<2ppk>",
        0.0
      ],
      [
        "<2qu>",
        0.0
      ],
      [
        "<2qub>",
        0.0
      ],
      [
        "<2quc>",
        0.0
      ],
      [
        "<2quf>",
        0.0
      ],
      [
        "<2quh>",
        0.0
      ],
      [
        "<2qup>",
        0.0
      ],
      [
        "<2quy>",
        0.0
      ],
      [
        "<2qvc>",
        0.0
      ],
      [
        "<2qvi>",
        0.0
      ],
      [
        "<2qvz>",
        0.0
      ],
      [
        "<2qxr>",
        0.0
      ],
      [
        "<2raj>",
        0.0
      ],
      [
        "<2rcf>",
        0.0
      ],
      [
        "<2rki>",
        0.0
      ],
      [
        "<2rm>",
        0.0
      ],
      [
        "<2rmc>",
        0.0
      ],
      [
        "<2rn>",
        0.0
      ],
      [
        "<2rom>",
        0.0
      ],
      [
        "<2ru_Latn>",
        0.0
      ],
      [
        "<2rwo>",
        0.0
      ],
      [
        "<2sa>",
        0.0
      ],
      [
        "<2sah>",
        0.0
      ],
      [
        "<2sat_Latn>",
        0.0
      ],
      [
        "<2sda>",
        0.0
      ],
      [
        "<2seh>",
        0.0
      ],
      [
        "<2sg>",
        0.0
      ],
      [
        "<2shp>",
        0.0
      ],
      [
        "<2sja>",
        0.0
      ],
      [
        "<2skr>",
        0.0
      ],
      [
        "<2sm>",
        0.0
      ],
      [
        "<2smt>",
        0.0
      ],
      [
        "<2sn>",
        0.0
      ],
      [
        "<2spp>",
        0.0
      ],
      [
        "<2srm>",
        0.0
      ],
      [
        "<2srn>",
        0.0
      ],
      [
        "<2ss>",
        0.0
      ],
      [
        "<2st>",
        0.0
      ],
      [
        "<2stq>",
        0.0
      ],
      [
        "<2su>",
        0.0
      ],
      [
        "<2sus>",
        0.0
      ],
      [
        "<2suz>",
        0.0
      ],
      [
        "<2sxn>",
        0.0
      ],
      [
        "<2syr>",
        0.0
      ],
      [
        "<2ta_Latn>",
        0.0
      ],
      [
        "<2tab>",
        0.0
      ],
      [
        "<2taj>",
        0.0
      ],
      [
        "<2tbz>",
        0.0
      ],
      [
        "<2tca>",
        0.0
      ],
      [
        "<2tcy>",
        0.0
      ],
      [
        "<2tdx>",
        0.0
      ],
      [
        "<2te_Latn>",
        0.0
      ],
      [
        "<2teo>",
        0.0
      ],
      [
        "<2tet>",
        0.0
      ],
      [
        "<2ti>",
        0.0
      ],
      [
        "<2tiv>",
        0.0
      ],
      [
        "<2tks>",
        0.0
      ],
      [
        "<2tlh>",
        0.0
      ],
      [
        "<2tll>",
        0.0
      ],
      [
        "<2tly_IR>",
        0.0
      ],
      [
        "<2tn>",
        0.0
      ],
      [
        "<2to>",
        0.0
      ],
      [
        "<2toj>",
        0.0
      ],
      [
        "<2trp>",
        0.0
      ],
      [
        "<2ts>",
        0.0
      ],
      [
        "<2tsc>",
        0.0
      ],
      [
        "<2tsg>",
        0.0
      ],
      [
        "<2tuc>",
        0.0
      ],
      [
        "<2tvl>",
        0.0
      ],
      [
        "<2twu>",
        0.0
      ],
      [
        "<2tyv>",
        0.0
      ],
      [
        "<2tyz>",
        0.0
      ],
      [
        "<2tzh>",
        0.0
      ],
      [
        "<2tzj>",
        0.0
      ],
      [
        "<2tzo>",
        0.0
      ],
      [
        "<2ubu>",
        0.0
      ],
      [
        "<2udm>",
        0.0
      ],
      [
        "<2ve>",
        0.0
      ],
      [
        "<2wal>",
        0.0
      ],
      [
        "<2war>",
        0.0
      ],
      [
        "<2wo>",
        0.0
      ],
      [
        "<2xal>",
        0.0
      ],
      [
        "<2yap>",
        0.0
      ],
      [
        "<2yua>",
        0.0
      ],
      [
        "<2zap>",
        0.0
      ],
      [
        "<2zh_Latn>",
        0.0
      ],
      [
        "<2zne>",
        0.0
      ],
      [
        "<2zza>",
        0.0
      ],
      [
        "<2Latn>",
        0.0
      ],
      [
        "<2Arab>",
        0.0
      ],
      [
        "<2Ethi>",
        0.0
      ],
      [
        "<2Beng>",
        0.0
      ],
      [
        "<2Cyrl>",
        0.0
      ],
      [
        "<2Deva>",
        0.0
      ],
      [
        "<2Thaa>",
        0.0
      ],
      [
        "<2Tibt>",
        0.0
      ],
      [
        "<2Grek>",
        0.0
      ],
      [
        "<2Gujr>",
        0.0
      ],
      [
        "<2Hebr>",
        0.0
      ],
      [
        "<2Armn>",
        0.0
      ],
      [
        "<2Cans>",
        0.0
      ],
      [
        "<2Jpan>",
        0.0
      ],
      [
        "<2Geor>",
        0.0
      ],
      [
        "<2Khmr>",
        0.0
      ],
      [
        "<2Knda>",
        0.0
      ],
      [
        "<2Kore>",
        0.0
      ],
      [
        "<2Mlym>",
        0.0
      ],
      [
        "<2Mymr>",
        0.0
      ],
      [
        "<2Orya>",
        0.0
      ],
      [
        "<2Guru>",
        0.0
      ],
      [
        "<2Taml>",
        0.0
      ],
      [
        "<2Tfng>",
        0.0
      ],
      [
        "<2Telu>",
        0.0
      ],
      [
        "<2Thai>",
        0.0
      ],
      [
        "#N/A",
        0.0
      ],
      [
        "<2Hans>",
        0.0
      ],
      [
        "<2Hant>",
        0.0
      ],
      [
        "<2Cher>",
        0.0
      ],
      [
        "<2CA>",
        0.0
      ],
      [
        "<2NL>",
        0.0
      ],
      [
        "<2RU>",
        0.0
      ],
      [
        "<2ZW>",
        0.0
      ],
      [
        "<2IR>",
        0.0
      ],
      [
        "<mask>",
        0.0
      ],
      [
        "<2translate>",
        0.0
      ],
      [
        "<2transliterate>",
        0.0
      ],
      [
        "<2mass>",
        0.0
      ],
      [
        "<2back_translated>",
        0.0
      ],
      [
        "<ctrl1>",
        0.0
      ],
      [
        "<ctrl2>",
        0.0
      ],
      [
        "<ctrl3>",
        0.0
      ],
      [
        "<ctrl4>",
        0.0
      ],
      [
        "<ctrl5>",
        0.0
      ],
      [
        "<ctrl6>",
        0.0
      ],
      [
        "<ctrl7>",
        0.0
      ],
      [
        "<ctrl8>",
        0.0
      ],
      [
        "<ctrl9>",
        0.0
      ],
      [
        "<ctrl10>",
        0.0
      ],
      [
        "<ctrl11>",
        0.0
      ],
      [
        "<ctrl12>",
        0.0
      ],
      [
        "<ctrl13>",
        0.0
      ],
      [
        "<ctrl14>",
        0.0
      ],
      [
        "<ctrl15>",
        0.0
      ],
      [
        "<ctrl16>",
        0.0
      ],
      [
        "<ctrl17>",
        0.0
      ],
      [
        "<ctrl18>",
        0.0
      ],
      [
        "<ctrl19>",
        0.0
      ],
      [
        "<ctrl20>",
        0.0
      ],
      [
        "<ctrl21>",
        0.0
      ],
      [
        "<ctrl22>",
        0.0
      ],
      [
        "<ctrl23>",
        0.0
      ],
      [
        "<ctrl24>",
        0.0
      ],
      [
        "<ctrl25>",
        0.0
      ],
      [
        "<ctrl26>",
        0.0
      ],
      [
        "<ctrl27>",
        0.0
      ],
      [
        "<ctrl28>",
        0.0
      ],
      [
        "<ctrl29>",
        0.0
      ],
      [
        "<ctrl30>",
        0.0
      ],
      [
        "<ctrl31>",
        0.0
      ],
      [
        "<ctrl32>",
        0.0
      ],
      [
        "<ctrl33>",
        0.0
      ],
      [
        "<ctrl34>",
        0.0
      ],
      [
        "<ctrl35>",
        0.0
      ],
      [
        "<ctrl36>",
        0.0
      ],
      [
        "<ctrl37>",
        0.0
      ],
      [
        "<ctrl38>",
        0.0
      ],
      [
        "<ctrl39>",
        0.0
      ],
      [
        "<ctrl40>",
        0.0
      ],
      [
        "<ctrl41>",
        0.0
      ],
      [
        "<ctrl42>",
        0.0
      ],
      [
        "<ctrl43>",
        0.0
      ],
      [
        "<ctrl44>",
        0.0
      ],
      [
        "<ctrl45>",
        0.0
      ],
      [
        "<ctrl46>",
        0.0
      ],
      [
        "<ctrl47>",
        0.0
      ],
      [
        "<ctrl48>",
        0.0
      ],
      [
        "<ctrl49>",
        0.0
      ],
      [
        "<ctrl50>",
        0.0
      ],
      [
        "<0x00>",
        0.0
      ],
      [
        "<0x01>",
        0.0
      ],
      [
        "<0x02>",
        0.0
      ],
      [
        "<0x03>",
        0.0
      ],
      [
        "<0x04>",
        0.0
      ],
      [
        "<0x05>",
        0.0
      ],
      [
        "<0x06>",
        0.0
      ],
      [
        "<0x07>",
        0.0
      ],
      [
        "<0x08>",
        0.0
      ],
      [
        "<0x09>",
        0.0
      ],
      [
        "<0x0A>",
        0.0
      ],
      [
        "<0x0B>",
        0.0
      ],
      [
        "<0x0C>",
        0.0
      ],
      [
        "<0x0D>",
        0.0
      ],
      [
        "<0x0E>",
        0.0
      ],
      [
        "<0x0F>",
        0.0
      ],
      [
        "<0x10>",
        0.0
      ],
      [
        "<0x11>",
        0.0
      ],
      [
        "<0x12>",
        0.0
      ],
      [
        "<0x13>",
        0.0
      ],
      [
        "<0x14>",
        0.0
      ],
      [
        "<0x15>",
        0.0
      ],
      [
        "<0x16>",
        0.0
      ],
      [
        "<0x17>",
        0.0
      ],
      [
        "<0x18>",
        0.0
      ],
      [
        "<0x19>",
        0.0
      ],
      [
        "<0x1A>",
        0.0
      ],
      [
        "<0x1B>",
        0.0
      ],
      [
        "<0x1C>",
        0.0
      ],
      [
        "<0x1D>",
        0.0
      ],
      [
        "<0x1E>",
        0.0
      ],
      [
        "<0x1F>",
        0.0
      ],
      [
        "<0x20>",
        0.0
      ],
      [
        "<0x21>",
        0.0
      ],
      [
        "<0x22>",
        0.0
      ],
      [
        "<0x23>",
        0.0
      ],
      [
        "<0x24>",
        0.0
      ],
      [
        "<0x25>",
        0.0
      ],
      [
        "<0x26>",
        0.0
      ],
      [
        "<0x27>",
        0.0
      ],
      [
        "<0x28>",
        0.0
      ],
      [
        "<0x29>",
        0.0
      ],
      [
        "<0x2A>",
        0.0
      ],
      [
        "<0x2B>",
        0.0
      ],
      [
        "<0x2C>",
        0.0
      ],
      [
        "<0x2D>",
        0.0
      ],
      [
        "<0x2E>",
        0.0
      ],
      [
        "<0x2F>",
        0.0
      ],
      [
        "<0x30>",
        0.0
      ],
      [
        "<0x31>",
        0.0
      ],
      [
        "<0x32>",
        0.0
      ],
      [
        "<0x33>",
        0.0
      ],
      [
        "<0x34>",
        0.0
      ],
      [
        "<0x35>",
        0.0
      ],
      [
        "<0x36>",
        0.0
      ],
      [
        "<0x37>",
        0.0
      ],
      [
        "<0x38>",
        0.0
      ],
      [
        "<0x39>",
        0.0
      ],
      [
        "<0x3A>",
        0.0
      ],
      [
        "<0x3B>",
        0.0
      ],
      [
        "<0x3C>",
        0.0
      ],
      [
        "<0x3D>",
        0.0
      ],
      [
        "<0x3E>",
        0.0
      ],
      [
        "<0x3F>",
        0.0
      ],
      [
        "<0x40>",
        0.0
      ],
      [
        "<0x41>",
        0.0
      ],
      [
        "<0x42>",
        0.0
      ],
      [
        "<0x43>",
        0.0
      ],
      [
        "<0x44>",
        0.0
      ],
      [
        "<0x45>",
        0.0
      ],
      [
        "<0x46>",
        0.0
      ],
      [
        "<0x47>",
        0.0
      ],
      [
        "<0x48>",
        0.0
      ],
      [
        "<0x49>",
        0.0
      ],
      [
        "<0x4A>",
        0.0
      ],
      [
        "<0x4B>",
        0.0
      ],
      [
        "<0x4C>",
        0.0
      ],
      [
        "<0x4D>",
        0.0
      ],
      [
        "<0x4E>",
        0.0
      ],
      [
        "<0x4F>",
        0.0
      ],
      [
        "<0x50>",
        0.0
      ],
      [
        "<0x51>",
        0.0
      ],
      [
        "<0x52>",
        0.0
      ],
      [
        "<0x53>",
        0.0
      ],
      [
        "<0x54>",
        0.0
      ],
      [
        "<0x55>",
        0.0
      ],
      [
        "<0x56>",
        0.0
      ],
      [
        "<0x57>",
        0.0
      ],
      [
        "<0x58>",
        0.0
      ],
      [
        "<0x59>",
        0.0
      ],
      [
        "<0x5A>",
        0.0
      ],
      [
        "<0x5B>",
        0.0
      ],
      [
        "<0x5C>",
        0.0
      ],
      [
        "<0x5D>",
        0.0
      ],
      [
        "<0x5E>",
        0.0
      ],
      [
        "<0x5F>",
        0.0
      ],
      [
        "<0x60>",
        0.0
      ],
      [
        "<0x61>",
        0.0
      ],
      [
        "<0x62>",
        0.0
      ],
      [
        "<0x63>",
        0.0
      ],
      [
        "<0x64>",
        0.0
      ],
      [
        "<0x65>",
        0.0
      ],
      [
        "<0x66>",
        0.0
      ],
      [
        "<0x67>",
        0.0
      ],
      [
        "<0x68>",
        0.0
      ],
      [
        "<0x69>",
        0.0
      ],
      [
        "<0x6A>",
        0.0
      ],
      [
        "<0x6B>",
        0.0
      ],
      [
        "<0x6C>",
        0.0
      ],
      [
        "<0x6D>",
        0.0
      ],
      [
        "<0x6E>",
        0.0
      ],
      [
        "<0x6F>",
        0.0
      ],
      [
        "<0x70>",
        0.0
      ],
      [
        "<0x71>",
        0.0
      ],
      [
        "<0x72>",
        0.0
      ],
      [
        "<0x73>",
        0.0
      ],
      [
        "<0x74>",
        0.0
      ],
      [
        "<0x75>",
        0.0
      ],
      [
        "<0x76>",
        0.0
      ],
      [
        "<0x77>",
        0.0
      ],
      [
        "<0x78>",
        0.0
      ],
      [
        "<0x79>",
        0.0
      ],
      [
        "<0x7A>",
        0.0
      ],
      [
        "<0x7B>",
        0.0
      ],
      [
        "<0x7C>",
        0.0
      ],
      [
        "<0x7D>",
        0.0
      ],
      [
        "<0x7E>",
        0.0
      ],
      [
        "<0x7F>",
        0.0
      ],
      [
        "<0x80>",
        0.0
      ],
      [
        "<0x81>",
        0.0
      ],
      [
        "<0x82>",
        0.0
      ],
      [
        "<0x83>",
        0.0
      ],
      [
        "<0x84>",
        0.0
      ],
      [
        "<0x85>",
        0.0
      ],
      [
        "<0x86>",
        0.0
      ],
      [
        "<0x87>",
        0.0
      ],
      [
        "<0x88>",
        0.0
      ],
      [
        "<0x89>",
        0.0
      ],
      [
        "<0x8A>",
        0.0
      ],
      [
        "<0x8B>",
        0.0
      ],
      [
        "<0x8C>",
        0.0
      ],
      [
        "<0x8D>",
        0.0
      ],
      [
        "<0x8E>",
        0.0
      ],
      [
        "<0x8F>",
        0.0
      ],
      [
        "<0x90>",
        0.0
      ],
      [
        "<0x91>",
        0.0
      ],
      [
        "<0x92>",
        0.0
      ],
      [
        "<0x93>",
        0.0
      ],
      [
        "<0x94>",
        0.0
      ],
      [
        "<0x95>",
        0.0
      ],
      [
        "<0x96>",
        0.0
      ],
      [
        "<0x97>",
        0.0
      ],
      [
        "<0x98>",
        0.0
      ],
      [
        "<0x99>",
        0.0
      ],
      [
        "<0x9A>",
        0.0
      ],
      [
        "<0x9B>",
        0.0
      ],
      [
        "<0x9C>",
        0.0
      ],
      [
        "<0x9D>",
        0.0
      ],
      [
        "<0x9E>",
        0.0
      ],
      [
        "<0x9F>",
        0.0
      ],
      [
        "<0xA0>",
        0.0
      ],
      [
        "<0xA1>",
        0.0
      ],
      [
        "<0xA2>",
        0.0
      ],
      [
        "<0xA3>",
        0.0
      ],
      [
        "<0xA4>",
        0.0
      ],
      [
        "<0xA5>",
        0.0
      ],
      [
        "<0xA6>",
        0.0
      ],
      [
        "<0xA7>",
        0.0
      ],
      [
        "<0xA8>",
        0.0
      ],
      [
        "<0xA9>",
        0.0
      ],
      [
        "<0xAA>",
        0.0
      ],
      [
        "<0xAB>",
        0.0
      ],
      [
        "<0xAC>",
        0.0
      ],
      [
        "<0xAD>",
        0.0
      ],
      [
        "<0xAE>",
        0.0
      ],
      [
        "<0xAF>",
        0.0
      ],
      [
        "<0xB0>",
        0.0
      ],
      [
        "<0xB1>",
        0.0
      ],
      [
        "<0xB2>",
        0.0
      ],
      [
        "<0xB3>",
        0.0
      ],
      [
        "<0xB4>",
        0.0
      ],
      [
        "<0xB5>",
        0.0
      ],
      [
        "<0xB6>",
        0.0
      ],
      [
        "<0xB7>",
        0.0
      ],
      [
        "<0xB8>",
        0.0
      ],
      [
        "<0xB9>",
        0.0
      ],
      [
        "<0xBA>",
        0.0
      ],
      [
        "<0xBB>",
        0.0
      ],
      [
        "<0xBC>",
        0.0
      ],
      [
        "<0xBD>",
        0.0
      ],
      [
        "<0xBE>",
        0.0
      ],
      [
        "<0xBF>",
        0.0
      ],
      [
        "<0xC0>",
        0.0
      ],
      [
        "<0xC1>",
        0.0
      ],
      [
        "<0xC2>",
        0.0
      ],
      [
        "<0xC3>",
        0.0
      ],
      [
        "<0xC4>",
        0.0
      ],
      [
        "<0xC5>",
        0.0
      ],
      [
        "<0xC6>",
        0.0
      ],
      [
        "<0xC7>",
        0.0
      ],
      [
        "<0xC8>",
        0.0
      ],
      [
        "<0xC9>",
        0.0
      ],
      [
        "<0xCA>",
        0.0
      ],
      [
        "<0xCB>",
        0.0
      ],
      [
        "<0xCC>",
        0.0
      ],
      [
        "<0xCD>",
        0.0
      ],
      [
        "<0xCE>",
        0.0
      ],
      [
        "<0xCF>",
        0.0
      ],
      [
        "<0xD0>",
        0.0
      ],
      [
        "<0xD1>",
        0.0
      ],
      [
        "<0xD2>",
        0.0
      ],
      [
        "<0xD3>",
        0.0
      ],
      [
        "<0xD4>",
        0.0
      ],
      [
        "<0xD5>",
        0.0
      ],
      [
        "<0xD6>",
        0.0
      ],
      [
        "<0xD7>",
        0.0
      ],
      [
        "<0xD8>",
        0.0
      ],
      [
        "<0xD9>",
        0.0
      ],
      [
        "<0xDA>",
        0.0
      ],
      [
        "<0xDB>",
        0.0
      ],
      [
        "<0xDC>",
        0.0
      ],
      [
        "<0xDD>",
        0.0
      ],
      [
        "<0xDE>",
        0.0
      ],
      [
        "<0xDF>",
        0.0
      ],
      [
        "<0xE0>",
        0.0
      ],
      [
        "<0xE1>",
        0.0
      ],
      [
        "<0xE2>",
        0.0
      ],
      [
        "<0xE3>",
        0.0
      ],
      [
        "<0xE4>",
        0.0
      ],
      [
        "<0xE5>",
        0.0
      ],
      [
        "<0xE6>",
        0.0
      ],
      [
        "<0xE7>",
        0.0
      ],
      [
        "<0xE8>",
        0.0
      ],
      [
        "<0xE9>",
        0.0
      ],
      [
        "<0xEA>",
        0.0
      ],
      [
        "<0xEB>",
        0.0
      ],
      [
        "<0xEC>",
        0.0
      ],
      [
        "<0xED>",
        0.0
      ],
      [
        "<0xEE>",
        0.0
      ],
      [
        "<0xEF>",
        0.0
      ],
      [
        "<0xF0>",
        0.0
      ],
      [
        "<0xF1>",
        0.0
      ],
      [
        "<0xF2>",
        0.0
      ],
      [
        "<0xF3>",
        0.0
      ],
      [
        "<0xF4>",
        0.0
      ],
      [
        "<0xF5>",
        0.0
      ],
      [
        "<0xF6>",
        0.0
      ],
      [
        "<0xF7>",
        0.0
      ],
      [
        "<0xF8>",
        0.0
      ],
      [
        "<0xF9>",
        0.0
      ],
      [
        "<0xFA>",
        0.0
      ],
      [
        "<0xFB>",
        0.0
      ],
      [
        "<0xFC>",
        0.0
      ],
      [
        "<0xFD>",
        0.0
      ],
      [
        "<0xFE>",
        0.0
      ],
      [
        "<0xFF>",
        0.0
      ],
      [
        "▁",
        -3.284043073654175
      ],
      [
        ",",
        -3.6045522689819336
      ],
      [
        ".",
        -3.683495998382568
      ],
      [
        "1",
        -4.730258941650391
      ],
      [
        "-",
        -4.867209434509277
      ],
      [
        "2",
        -5.031008720397949
      ],
      [
        "▁a",
        -5.0609588623046875
      ],
      [
        "a",
        -5.076968193054199
      ],
      [
        "0",
        -5.111424446105957
      ],
      [
        "'",
        -5.220880031585693
      ],
      [
        ":",
        -5.366466045379639
      ],
      [
        "e",
        -5.446138381958008
      ],
      [
        "▁na",
        -5.480112552642822
      ],
      [
        "i",
        -5.506370544433594
      ],
      [
        "’",
        -5.5680365562438965
      ],
      [
        "s",
        -5.587199687957764
      ],
      [
        "▁i",
        -5.639266014099121
      ],
      [
        "3",
        -5.721873760223389
      ],
      [
        "▁e",
        -5.771275520324707
      ],
      [
        "n",
        -5.789154052734375
      ],
      [
        "▁(",
        -5.826744556427002
      ],
      [
        "o",
        -5.830436706542969
      ],
      [
        "4",
        -5.920910358428955
      ],
      [
        "▁de",
        -5.92485237121582
      ],
      [
        "5",
        -5.938012599945068
      ],
      [
        ")",
        -5.965970516204834
      ],
      [
        "ʼ",
        -5.96954345703125
      ],
      [
        "▁ka",
        -6.045883655548096
      ],
      [
        "9",
        -6.05862283706665
      ],
      [
        "u",
        -6.086735248565674
      ],
      [
        "6",
        -6.178913593292236
      ],
      [
        "7",
        -6.2054901123046875
      ],
      [
        "8",
        -6.209061145782471
      ],
      [
        "▁o",
        -6.22413444519043
      ],
      [
        "▁la",
        -6.241410732269287
      ],
      [
        "t",
        -6.242702484130859
      ],
      [
        "▁ni",
        -6.293686389923096
      ],
      [
        "▁di",
        -6.3037428855896
      ],
      [
        "?",
        -6.322667121887207
      ],
      [
        "▁ma",
        -6.324297904968262
      ],
      [
        "▁te",
        -6.333922863006592
      ],
      [
        "▁in",
        -6.351922988891602
      ],
      [
        "▁u",
        -6.3600358963012695
      ],
      [
        "na",
        -6.386086463928223
      ],
      [
        "▁“",
        -6.453089714050293
      ],
      [
        "▁sa",
        -6.475001811981201
      ],
      [
        "▁ya",
        -6.531713962554932
      ],
      [
        "▁ta",
        -6.542410850524902
      ],
      [
        "▁ti",
        -6.551236629486084
      ],
      [
        "I",
        -6.588749885559082
      ],
      [
        "▁le",
        -6.598030090332031
      ],
      [
        "▁ne",
        -6.599138259887695
      ],
      [
        "an",
        -6.615808486938477
      ],
      [
        "▁ki",
        -6.650068759918213
      ],
      [
        "▁se",
        -6.701448917388916
      ],
      [
        "▁ba",
        -6.7421088218688965
      ],
      [
        ";",
        -6.768826484680176
      ],
      [
        "▁da",
        -6.768921375274658
      ],
      [
        "▁ke",
        -6.7969889640808105
      ],
      [
        "▁an",
        -6.798285961151123
      ],
      [
        "ˈ",
        -6.820685863494873
      ],
      [
        "▁nga",
        -6.824367523193359
      ],
      [
        "m",
        -6.831170082092285
      ],
      [
        "▁ku",
        -6.85431432723999
      ],
      [
        "ta",
        -6.86065673828125
      ],
      [
        "▁-",
        -6.868262767791748
      ],
      [
        "▁to",
        -6.882416725158691
      ],
      [
        "▁ko",
        -6.882751941680908
      ],
      [
        "y",
        -6.894364356994629
      ],
      [
        "▁A",
        -6.915567398071289
      ],
      [
        "​",
        -6.917739391326904
      ],
      [
        "r",
        -6.9211907386779785
      ],
      [
        "▁si",
        -6.921679496765137
      ],
      [
        "▁me",
        -6.94466495513916
      ],
      [
        "­",
        -6.988137245178223
      ],
      [
        "k",
        -6.995430946350098
      ],
      [
        "▁pa",
        -7.020862579345703
      ],
      [
        "▁wa",
        -7.0254011154174805
      ],
      [
        "▁en",
        -7.035876274108887
      ],
      [
        "▁n",
        -7.083351135253906
      ],
      [
        "▁li",
        -7.083733081817627
      ],
      [
        "▁no",
        -7.116797924041748
      ],
      [
        "▁mu",
        -7.118373394012451
      ],
      [
        "ni",
        -7.118669509887695
      ],
      [
        "in",
        -7.12209939956665
      ],
      [
        "▁ri",
        -7.127209186553955
      ],
      [
        "▁l",
        -7.129704475402832
      ],
      [
        "▁k",
        -7.147987365722656
      ],
      [
        "ka",
        -7.16847038269043
      ],
      [
        "la",
        -7.173013210296631
      ],
      [
        "en",
        -7.178657054901123
      ],
      [
        "▁mi",
        -7.187179088592529
      ],
      [
        "▁be",
        -7.194886207580566
      ],
      [
        "h",
        -7.20436429977417
      ],
      [
        "▁ye",
        -7.231828689575195
      ],
      [
        "▁ja",
        -7.247441291809082
      ],
      [
        "▁ha",
        -7.271932125091553
      ],
      [
        "▁do",
        -7.272065162658691
      ],
      [
        "ma",
        -7.278536796569824
      ],
      [
        "te",
        -7.280699729919434
      ],
      [
        "،",
        -7.2879462242126465
      ],
      [
        "”",
        -7.296596527099609
      ],
      [
        "l",
        -7.323400497436523
      ],
      [
        "▁I",
        -7.325303554534912
      ],
      [
        "d",
        -7.325982093811035
      ],
      [
        "=",
        -7.329493999481201
      ],
      [
        "▁\"",
        -7.338035583496094
      ],
      [
        "▁tu",
        -7.357020854949951
      ],
      [
        "।",
        -7.363300800323486
      ],
      [
        "а",
        -7.383693695068359
      ],
      [
        "æ",
        -7.384568214416504
      ],
      [
        "▁mo",
        -7.417479991912842
      ],
      [
        "▁d",
        -7.435289859771728
      ],
      [
        "!",
        -7.438576698303223
      ],
      [
        "mi",
        -7.441046237945557
      ],
      [
        "da",
        -7.443116188049316
      ],
      [
        "꞉",
        -7.456634998321533
      ],
      [
        "▁‘",
        -7.471886157989502
      ],
      [
        "ne",
        -7.4747419357299805
      ],
      [
        "al",
        -7.477603435516357
      ],
      [
        "▁«",
        -7.499467372894287
      ],
      [
        "/",
        -7.499807834625244
      ],
      [
        "ti",
        -7.503579616546631
      ],
      [
        "▁lo",
        -7.505808353424072
      ],
      [
        "▁je",
        -7.509875297546387
      ],
      [
        "▁c",
        -7.511579990386963
      ],
      [
        "▁–",
        -7.528088569641113
      ],
      [
        "▁so",
        -7.531832695007324
      ],
      [
        "▁ra",
        -7.552578926086426
      ],
      [
        "▁y",
        -7.553017616271973
      ],
      [
        "ra",
        -7.556252479553223
      ],
      [
        "ʻ",
        -7.56368350982666
      ],
      [
        "▁hi",
        -7.567376613616943
      ],
      [
        ".”",
        -7.56918478012085
      ],
      [
        "le",
        -7.5725016593933105
      ],
      [
        "▁bi",
        -7.601776123046875
      ],
      [
        "и",
        -7.608006000518799
      ],
      [
        "ga",
        -7.620253562927246
      ],
      [
        "wa",
        -7.620468139648437
      ],
      [
        "ya",
        -7.621468067169189
      ],
      [
        "p",
        -7.639204025268555
      ],
      [
        "▁ga",
        -7.645420074462891
      ],
      [
        "е",
        -7.649225234985352
      ],
      [
        "de",
        -7.651239395141602
      ],
      [
        "▁un",
        -7.672301769256592
      ],
      [
        "▁pe",
        -7.672637939453125
      ],
      [
        "▁E",
        -7.675108909606934
      ],
      [
        "▁el",
        -7.683994293212891
      ],
      [
        "н",
        -7.707766532897949
      ],
      [
        "j",
        -7.717399597167969
      ],
      [
        "li",
        -7.721498489379883
      ],
      [
        "▁'",
        -7.724628925323486
      ],
      [
        "ë",
        -7.729682445526123
      ],
      [
        "\"",
        -7.73322057723999
      ],
      [
        "▁er",
        -7.735274791717529
      ],
      [
        "er",
        -7.7504730224609375
      ],
      [
        "▁he",
        -7.753304958343506
      ],
      [
        "▁kan",
        -7.755481243133545
      ],
      [
        "b",
        -7.756405830383301
      ],
      [
        "g",
        -7.758872509002685
      ],
      [
        "ì",
        -7.760896682739258
      ],
      [
        "▁re",
        -7.765143394470215
      ],
      [
        "▁ai",
        -7.771462440490723
      ],
      [
        "re",
        -7.783711910247803
      ],
      [
        "ko",
        -7.789874076843262
      ],
      [
        "ö",
        -7.797249317169189
      ],
      [
        "▁ho",
        -7.802230358123779
      ],
      [
        "on",
        -7.805782318115234
      ],
      [
        "▁s",
        -7.806348323822021
      ],
      [
        "▁O",
        -7.808351039886475
      ],
      [
        "▁m",
        -7.817745685577393
      ],
      [
        "▁go",
        -7.8196492195129395
      ],
      [
        "▁su",
        -7.820151805877685
      ],
      [
        "м",
        -7.82119607925415
      ],
      [
        ").",
        -7.825301647186279
      ],
      [
        "to",
        -7.82589054107666
      ],
      [
        "sa",
        -7.830051898956299
      ],
      [
        "▁t",
        -7.845817089080811
      ],
      [
        "pa",
        -7.855976581573486
      ],
      [
        "▁nu",
        -7.85654878616333
      ],
      [
        "ar",
        -7.865396976470947
      ],
      [
        "▁man",
        -7.866085529327393
      ],
      [
        "▁ar",
        -7.869846343994141
      ],
      [
        "▁yo",
        -7.8703155517578125
      ],
      [
        "▁va",
        -7.870632648468018
      ],
      [
        "es",
        -7.872942924499512
      ],
      [
        "se",
        -7.875341892242432
      ],
      [
        "▁b",
        -7.877552032470703
      ],
      [
        "si",
        -7.88205623626709
      ],
      [
        "ba",
        -7.8824944496154785
      ],
      [
        "▁que",
        -7.883142948150635
      ],
      [
        "c",
        -7.883273124694824
      ],
      [
        "▁we",
        -7.883519649505615
      ],
      [
        "▁du",
        -7.889876365661621
      ],
      [
        "▁و",
        -7.893158435821533
      ],
      [
        "▁и",
        -7.899408340454102
      ],
      [
        "▁is",
        -7.907222270965576
      ],
      [
        "»",
        -7.921993255615234
      ],
      [
        "▁yi",
        -7.925278663635254
      ],
      [
        "di",
        -7.930289745330811
      ],
      [
        "▁ve",
        -7.935023784637451
      ],
      [
        "▁fa",
        -7.940392017364502
      ],
      [
        "un",
        -7.942524909973144
      ],
      [
        "▁ia",
        -7.949086666107178
      ],
      [
        "no",
        -7.955216884613037
      ],
      [
        "▁bo",
        -7.957847595214844
      ],
      [
        "▁S",
        -7.965842247009277
      ],
      [
        "as",
        -7.967408657073975
      ],
      [
        "▁the",
        -7.9777021408081055
      ],
      [
        "▁of",
        -7.988558769226074
      ],
      [
        "▁के",
        -7.990099906921387
      ],
      [
        "ki",
        -7.990993022918701
      ],
      [
        "ng",
        -7.993756294250488
      ],
      [
        "w",
        -7.9950785636901855
      ],
      [
        "í",
        -8.006986618041992
      ],
      [
        "▁dan",
        -8.011688232421875
      ],
      [
        "▁za",
        -8.019505500793457
      ],
      [
        "é",
        -8.02807331085205
      ],
      [
        "▁po",
        -8.032515525817871
      ],
      [
        "z",
        -8.03562068939209
      ],
      [
        "▁Na",
        -8.049670219421387
      ],
      [
        "A",
        -8.052041053771973
      ],
      [
        "ri",
        -8.054718971252441
      ],
      [
        "▁да",
        -8.05486011505127
      ],
      [
        "ke",
        -8.058862686157227
      ],
      [
        "▁—",
        -8.068317413330078
      ],
      [
        "▁chi",
        -8.068782806396484
      ],
      [
        "is",
        -8.069403648376465
      ],
      [
        "р",
        -8.075100898742676
      ],
      [
        "▁U",
        -8.075540542602539
      ],
      [
        "▁che",
        -8.076424598693848
      ],
      [
        "▁on",
        -8.0765380859375
      ],
      [
        "tu",
        -8.088689804077148
      ],
      [
        "▁на",
        -8.089341163635254
      ],
      [
        "▁yu",
        -8.090555191040039
      ],
      [
        "▁Ma",
        -8.091717720031738
      ],
      [
        "▁at",
        -8.092663764953613
      ],
      [
        "ی",
        -8.098047256469727
      ],
      [
        "lo",
        -8.111294746398926
      ],
      [
        "ku",
        -8.11317253112793
      ],
      [
        "▁ʻ",
        -8.113677024841309
      ],
      [
        "ha",
        -8.115412712097168
      ],
      [
        "у",
        -8.11574935913086
      ],
      [
        "ă",
        -8.136087417602539
      ],
      [
        "▁N",
        -8.139788627624512
      ],
      [
        "▁د",
        -8.151605606079102
      ],
      [
        "il",
        -8.15546989440918
      ],
      [
        "ja",
        -8.168822288513184
      ],
      [
        "▁Dios",
        -8.171101570129395
      ],
      [
        "me",
        -8.175174713134766
      ],
      [
        "▁and",
        -8.178659439086914
      ],
      [
        "▁K",
        -8.181660652160645
      ],
      [
        "▁og",
        -8.187641143798828
      ],
      [
        "ca",
        -8.19749927520752
      ],
      [
        "be",
        -8.203329086303711
      ],
      [
        "▁M",
        -8.210807800292969
      ],
      [
        "▁mai",
        -8.214466094970703
      ],
      [
        "▁v",
        -8.216710090637207
      ],
      [
        "el",
        -8.22249698638916
      ],
      [
        "ê",
        -8.224162101745605
      ],
      [
        "▁for",
        -8.229389190673828
      ],
      [
        "yo",
        -8.234122276306152
      ],
      [
        "Ø",
        -8.240334510803223
      ],
      [
        "ye",
        -8.241567611694336
      ],
      [
        "▁T",
        -8.246511459350586
      ],
      [
        "▁den",
        -8.24791145324707
      ],
      [
        "▁mga",
        -8.25169563293457
      ],
      [
        "▁ca",
        -8.252605438232422
      ],
      [
        "at",
        -8.25604248046875
      ],
      [
        "▁nan",
        -8.25707721710205
      ],
      [
        "▁bu",
        -8.258696556091309
      ],
      [
        "mu",
        -8.263628005981445
      ],
      [
        "▁ang",
        -8.26651668548584
      ],
      [
        "т",
        -8.27083969116211
      ],
      [
        "pi",
        -8.271392822265625
      ],
      [
        "▁wi",
        -8.274224281311035
      ],
      [
        "...",
        -8.281562805175781
      ],
      [
        "go",
        -8.289175033569336
      ],
      [
        "do",
        -8.292680740356445
      ],
      [
        "ny",
        -8.297656059265137
      ],
      [
        "▁per",
        -8.297796249389648
      ],
      [
        "mo",
        -8.29909896850586
      ],
      [
        "▁La",
        -8.299180030822754
      ],
      [
        "，",
        -8.30208969116211
      ],
      [
        "▁para",
        -8.307221412658691
      ],
      [
        "▁C",
        -8.307625770568848
      ],
      [
        "й",
        -8.311715126037598
      ],
      [
        "man",
        -8.31420612335205
      ],
      [
        "G",
        -8.314996719360352
      ],
      [
        "▁wo",
        -8.317605972290039
      ],
      [
        "▁cu",
        -8.326292991638184
      ],
      [
        "▁Ka",
        -8.330833435058594
      ],
      [
        "▁et",
        -8.344886779785156
      ],
      [
        "ch",
        -8.351027488708496
      ],
      [
        "nu",
        -8.352944374084473
      ],
      [
        "ˬ",
        -8.357664108276367
      ],
      [
        "▁al",
        -8.359428405761719
      ],
      [
        "▁ng",
        -8.373854637145996
      ],
      [
        "к",
        -8.373932838439941
      ],
      [
        "▁B",
        -8.37407112121582
      ],
      [
        "it",
        -8.379507064819336
      ],
      [
        "▁।",
        -8.380419731140137
      ],
      [
        "▁pi",
        -8.384860038757324
      ],
      [
        "і",
        -8.38530158996582
      ],
      [
        "ak",
        -8.389537811279297
      ],
      [
        "ia",
        -8.39116096496582
      ],
      [
        "…",
        -8.394185066223145
      ],
      [
        "▁P",
        -8.396735191345215
      ],
      [
        "va",
        -8.397180557250977
      ],
      [
        "am",
        -8.39915657043457
      ],
      [
        "▁p",
        -8.404494285583496
      ],
      [
        "▁kɛ",
        -8.407698631286621
      ],
      [
        "▁gi",
        -8.419167518615723
      ],
      [
        "▁wan",
        -8.420726776123047
      ],
      [
        "▁fu",
        -8.433192253112793
      ],
      [
        "ы",
        -8.436810493469238
      ],
      [
        "▁par",
        -8.438644409179688
      ],
      [
        "▁¿",
        -8.44105052947998
      ],
      [
        "q",
        -8.44355297088623
      ],
      [
        "▁as",
        -8.445059776306152
      ],
      [
        "▁ì",
        -8.447783470153809
      ],
      [
        "▁ji",
        -8.44922924041748
      ],
      [
        "x",
        -8.45065689086914
      ],
      [
        "▁fi",
        -8.451683044433594
      ],
      [
        "gi",
        -8.45337200164795
      ],
      [
        "et",
        -8.45930290222168
      ],
      [
        "ro",
        -8.471657752990723
      ],
      [
        "▁ah",
        -8.476341247558594
      ],
      [
        "▁ci",
        -8.479106903076172
      ],
      [
        "ˇ",
        -8.481526374816895
      ],
      [
        "os",
        -8.485966682434082
      ],
      [
        "▁lu",
        -8.487548828125
      ],
      [
        "▁à",
        -8.487775802612305
      ],
      [
        "kan",
        -8.493339538574219
      ],
      [
        "▁yang",
        -8.499384880065918
      ],
      [
        "je",
        -8.506473541259766
      ],
      [
        "v",
        -8.508506774902344
      ],
      [
        "。",
        -8.509514808654785
      ],
      [
        "的",
        -8.51390552520752
      ],
      [
        "▁lɛ",
        -8.514304161071777
      ],
      [
        "f",
        -8.515316009521484
      ],
      [
        "с",
        -8.51889419555664
      ],
      [
        "▁L",
        -8.519525527954102
      ],
      [
        "да",
        -8.522004127502441
      ],
      [
        "us",
        -8.525996208190918
      ],
      [
        "ana",
        -8.531828880310059
      ],
      [
        "о",
        -8.531840324401855
      ],
      [
        "▁ny",
        -8.533148765563965
      ],
      [
        "▁dia",
        -8.533596992492676
      ],
      [
        "л",
        -8.533634185791016
      ],
      [
        "chi",
        -8.53685474395752
      ],
      [
        "Ù",
        -8.538751602172852
      ],
      [
        "▁g",
        -8.541181564331055
      ],
      [
        "▁а",
        -8.545479774475098
      ],
      [
        "pe",
        -8.550206184387207
      ],
      [
        "ru",
        -8.555774688720703
      ],
      [
        "▁ch",
        -8.558218955993652
      ],
      [
        "▁é",
        -8.558728218078613
      ],
      [
        "▁ge",
        -8.558815956115723
      ],
      [
        "bi",
        -8.559218406677246
      ],
      [
        "ge",
        -8.561147689819336
      ],
      [
        "▁om",
        -8.561450958251953
      ],
      [
        "э",
        -8.56308650970459
      ],
      [
        "▁shi",
        -8.565149307250977
      ],
      [
        "д",
        -8.5692777633667
      ],
      [
        "ji",
        -8.582538604736328
      ],
      [
        "lu",
        -8.586161613464355
      ],
      [
        "S",
        -8.586950302124023
      ],
      [
        "▁Jesús",
        -8.587282180786133
      ],
      [
        "▁gu",
        -8.592694282531738
      ],
      [
        "▁pou",
        -8.594514846801758
      ],
      [
        "▁An",
        -8.595199584960938
      ],
      [
        "▁D",
        -8.596242904663086
      ],
      [
        "▁van",
        -8.596688270568848
      ],
      [
        "▁в",
        -8.60457992553711
      ],
      [
        "ĕ",
        -8.608209609985352
      ],
      [
        "▁w",
        -8.609362602233887
      ],
      [
        "we",
        -8.62364673614502
      ],
      [
        "ن",
        -8.623771667480469
      ],
      [
        "▁del",
        -8.628161430358887
      ],
      [
        "è",
        -8.631362915039062
      ],
      [
        "▁ak",
        -8.63626480102539
      ],
      [
        "¿½",
        -8.63640308380127
      ],
      [
        "ه",
        -8.63907527923584
      ],
      [
        "á",
        -8.64177417755127
      ],
      [
        "х",
        -8.64200210571289
      ],
      [
        "O",
        -8.642959594726562
      ],
      [
        "п",
        -8.648000717163086
      ],
      [
        "ي",
        -8.64820384979248
      ],
      [
        "▁um",
        -8.649369239807129
      ],
      [
        "▁tau",
        -8.650140762329102
      ],
      [
        "▁cha",
        -8.651872634887695
      ],
      [
        "▁die",
        -8.652512550354004
      ],
      [
        "▁Se",
        -8.65300464630127
      ],
      [
        "▁ani",
        -8.653756141662598
      ],
      [
        "ing",
        -8.656840324401855
      ],
      [
        "ik",
        -8.662520408630371
      ],
      [
        "▁í",
        -8.66265869140625
      ],
      [
        "um",
        -8.66270637512207
      ],
      [
        "ah",
        -8.664487838745117
      ],
      [
        "nya",
        -8.66544246673584
      ],
      [
        "▁|",
        -8.668384552001953
      ],
      [
        "▁im",
        -8.668869972229004
      ],
      [
        "C",
        -8.670953750610352
      ],
      [
        "E",
        -8.674067497253418
      ],
      [
        "ed",
        -8.67484188079834
      ],
      [
        "▁jo",
        -8.678129196166992
      ],
      [
        "▁yn",
        -8.684685707092285
      ],
      [
        "▁H",
        -8.68691635131836
      ],
      [
        "▁ɔ",
        -8.689409255981445
      ],
      [
        "на",
        -8.701056480407715
      ],
      [
        "om",
        -8.703479766845703
      ],
      [
        "±",
        -8.712878227233887
      ],
      [
        "▁Yesu",
        -8.713452339172363
      ],
      [
        "(",
        -8.715863227844238
      ],
      [
        "▁In",
        -8.719511032104492
      ],
      [
        "▁z",
        -8.719807624816895
      ],
      [
        "▁у",
        -8.722524642944336
      ],
      [
        "▁kai",
        -8.723078727722168
      ],
      [
        "▁ë",
        -8.727601051330566
      ],
      [
        "ын",
        -8.731793403625488
      ],
      [
        "“",
        -8.732831001281738
      ],
      [
        "▁kwa",
        -8.732945442199707
      ],
      [
        "du",
        -8.734509468078613
      ],
      [
        "▁mana",
        -8.73459529876709
      ],
      [
        "▁De",
        -8.73790454864502
      ],
      [
        "▁il",
        -8.738781929016113
      ],
      [
        "▁hai",
        -8.740666389465332
      ],
      [
        "),",
        -8.745429039001465
      ],
      [
        "▁tan",
        -8.745768547058105
      ],
      [
        "▁к",
        -8.746988296508789
      ],
      [
        "▁kuti",
        -8.747570991516113
      ],
      [
        "▁&",
        -8.754228591918945
      ],
      [
        "za",
        -8.755976676940918
      ],
      [
        "▁h",
        -8.758142471313477
      ],
      [
        "▁за",
        -8.76213264465332
      ],
      [
        "▁ê",
        -8.762775421142578
      ],
      [
        "г",
        -8.763813018798828
      ],
      [
        "wo",
        -8.763967514038086
      ],
      [
        "à",
        -8.76575756072998
      ],
      [
        "▁nail",
        -8.766060829162598
      ],
      [
        "ш",
        -8.76634693145752
      ],
      [
        "▁G",
        -8.768528938293457
      ],
      [
        "▁Sa",
        -8.768932342529297
      ],
      [
        "▁с",
        -8.77070140838623
      ],
      [
        "▁ay",
        -8.77131462097168
      ],
      [
        "▁Di",
        -8.772043228149414
      ],
      [
        "st",
        -8.773009300231934
      ],
      [
        "%",
        -8.77411937713623
      ],
      [
        "ho",
        -8.775815963745117
      ],
      [
        "▁sang",
        -8.777865409851074
      ],
      [
        "§",
        -8.781744003295898
      ],
      [
        "▁Te",
        -8.782928466796875
      ],
      [
        "▁jun",
        -8.78481674194336
      ],
      [
        "ci",
        -8.788722038269043
      ],
      [
        "▁por",
        -8.789907455444336
      ],
      [
        "▁ngu",
        -8.802720069885254
      ],
      [
        "ai",
        -8.803731918334961
      ],
      [
        "▁Ba",
        -8.803871154785156
      ],
      [
        "▁ro",
        -8.80389404296875
      ],
      [
        "ul",
        -8.810856819152832
      ],
      [
        "]",
        -8.813669204711914
      ],
      [
        "▁در",
        -8.819016456604004
      ],
      [
        "bo",
        -8.819687843322754
      ],
      [
        "▁ndi",
        -8.820287704467773
      ],
      [
        "th",
        -8.821052551269531
      ],
      [
        "ot",
        -8.821088790893555
      ],
      [
        "▁Ta",
        -8.824070930480957
      ],
      [
        "ala",
        -8.82463550567627
      ],
      [
        "▁op",
        -8.825539588928223
      ],
      [
        "su",
        -8.835371971130371
      ],
      [
        "▁nge",
        -8.837875366210938
      ],
      [
        "▁ju",
        -8.83855152130127
      ],
      [
        "ны",
        -8.838706970214844
      ],
      [
        "▁am",
        -8.839433670043945
      ],
      [
        "▁men",
        -8.8402681350708
      ],
      [
        "▁sha",
        -8.84533977508545
      ],
      [
        "▁sin",
        -8.84589672088623
      ],
      [
        "dan",
        -8.848941802978516
      ],
      [
        "▁/",
        -8.849928855895996
      ],
      [
        "▁ini",
        -8.85059928894043
      ],
      [
        "▁til",
        -8.850950241088867
      ],
      [
        "▁Si",
        -8.851929664611816
      ],
      [
        "▁xa",
        -8.85655689239502
      ],
      [
        "、",
        -8.859130859375
      ],
      [
        "N",
        -8.860456466674805
      ],
      [
        "hi",
        -8.860637664794922
      ],
      [
        "▁Ne",
        -8.871560096740723
      ],
      [
        "▁min",
        -8.872197151184082
      ],
      [
        "zi",
        -8.876328468322754
      ],
      [
        "و",
        -8.877155303955078
      ],
      [
        "▁x",
        -8.879528999328613
      ],
      [
        "em",
        -8.88331413269043
      ],
      [
        "▁ana",
        -8.88437271118164
      ],
      [
        "ни",
        -8.885514259338379
      ],
      [
        "so",
        -8.890090942382812
      ],
      [
        "▁Ja",
        -8.890542984008789
      ],
      [
        "yi",
        -8.89255428314209
      ],
      [
        "wi",
        -8.899004936218262
      ],
      [
        "▁tak",
        -8.901144981384277
      ],
      [
        "▁lan",
        -8.906390190124512
      ],
      [
        "▁ena",
        -8.908507347106934
      ],
      [
        "▁ва",
        -8.90869140625
      ],
      [
        "ve",
        -8.909425735473633
      ],
      [
        "▁pu",
        -8.911749839782715
      ],
      [
        "▁aku",
        -8.915583610534668
      ],
      [
        "ˆ",
        -8.916154861450195
      ],
      [
        "▁iya",
        -8.916450500488281
      ],
      [
        "▁á",
        -8.916899681091309
      ],
      [
        "▁leh",
        -8.917194366455078
      ],
      [
        "▁V",
        -8.920968055725098
      ],
      [
        "tan",
        -8.925533294677734
      ],
      [
        "▁Jesus",
        -8.926209449768066
      ],
      [
        "▁ال",
        -8.927216529846191
      ],
      [
        "га",
        -8.927971839904785
      ],
      [
        "▁Li",
        -8.929441452026367
      ],
      [
        "▁xi",
        -8.931450843811035
      ],
      [
        "▁Pa",
        -8.940411567687988
      ],
      [
        "▁में",
        -8.941144943237305
      ],
      [
        "▁by",
        -8.942922592163086
      ],
      [
        "_",
        -8.942949295043945
      ],
      [
        "▁ek",
        -8.945600509643555
      ],
      [
        "aj",
        -8.945677757263184
      ],
      [
        "▁„",
        -8.946009635925293
      ],
      [
        "क",
        -8.948071479797363
      ],
      [
        "я",
        -8.948661804199219
      ],
      [
        "vi",
        -8.948697090148926
      ],
      [
        "▁han",
        -8.949419021606445
      ],
      [
        "▁bin",
        -8.949506759643555
      ],
      [
        "▁т",
        -8.952681541442871
      ],
      [
        "ir",
        -8.9529447555542
      ],
      [
        "▁Ko",
        -8.953245162963867
      ],
      [
        "nga",
        -8.9552640914917
      ],
      [
        "he",
        -8.959734916687012
      ],
      [
        "uk",
        -8.960631370544434
      ],
      [
        "▁ir",
        -8.960916519165039
      ],
      [
        "▁j",
        -8.961552619934082
      ],
      [
        "▁è",
        -8.963570594787598
      ],
      [
        "▁Ni",
        -8.964278221130371
      ],
      [
        "▁una",
        -8.969511985778809
      ],
      [
        "▁ua",
        -8.970843315124512
      ],
      [
        "im",
        -8.971248626708984
      ],
      [
        "▁zi",
        -8.97244930267334
      ],
      [
        "M",
        -8.973575592041016
      ],
      [
        "▁Ya",
        -8.975578308105469
      ],
      [
        "▁не",
        -8.976154327392578
      ],
      [
        "▁co",
        -8.977783203125
      ],
      [
        "nan",
        -8.981833457946777
      ],
      [
        "▁bɛ",
        -8.982489585876465
      ],
      [
        "�",
        -8.983267784118652
      ],
      [
        "▁ou",
        -8.983963012695312
      ],
      [
        "▁Y",
        -8.985447883605957
      ],
      [
        "gu",
        -8.989374160766602
      ],
      [
        "ت",
        -8.989446640014648
      ],
      [
        "▁nou",
        -8.990127563476562
      ],
      [
        "▁ac",
        -8.991015434265137
      ],
      [
        "ur",
        -8.994084358215332
      ],
      [
        "▁vi",
        -8.996220588684082
      ],
      [
        "ан",
        -8.997990608215332
      ],
      [
        "▁Me",
        -9.000678062438965
      ],
      [
        "▁[",
        -9.003233909606934
      ],
      [
        "ce",
        -9.004570007324219
      ],
      [
        "▁long",
        -9.004596710205078
      ],
      [
        "D",
        -9.00503158569336
      ],
      [
        "+",
        -9.005595207214355
      ],
      [
        "▁les",
        -9.005857467651367
      ],
      [
        "▁nin",
        -9.009747505187988
      ],
      [
        "▁Ke",
        -9.01236057281494
      ],
      [
        "▁hem",
        -9.01667022705078
      ],
      [
        "ob",
        -9.018961906433104
      ],
      [
        "▁Le",
        -9.018980026245115
      ],
      [
        "K",
        -9.019295692443848
      ],
      [
        "bu",
        -9.01982879638672
      ],
      [
        "▁ⵏ",
        -9.02138614654541
      ],
      [
        "ी",
        -9.022029876708984
      ],
      [
        "▁आ",
        -9.022690773010254
      ],
      [
        "▁av",
        -9.025160789489746
      ],
      [
        "▁hu",
        -9.02519416809082
      ],
      [
        "▁...",
        -9.02718734741211
      ],
      [
        "—",
        -9.028531074523926
      ],
      [
        "▁të",
        -9.030150413513184
      ],
      [
        "co",
        -9.030560493469238
      ],
      [
        "न",
        -9.0336275100708
      ],
      [
        "ang",
        -9.03541660308838
      ],
      [
        "▁it",
        -9.036206245422363
      ],
      [
        "▁ala",
        -9.041651725769045
      ],
      [
        "▁Mu",
        -9.044543266296388
      ],
      [
        "▁سنگ",
        -9.044939994812012
      ],
      [
        "ا",
        -9.044998168945312
      ],
      [
        "▁con",
        -9.046381950378418
      ],
      [
        "▁ban",
        -9.049487113952637
      ],
      [
        "ek",
        -9.04971694946289
      ],
      [
        "po",
        -9.052098274230955
      ],
      [
        "▁des",
        -9.05329132080078
      ],
      [
        "ju",
        -9.053502082824709
      ],
      [
        "▁се",
        -9.055401802062988
      ],
      [
        "wan",
        -9.058025360107422
      ],
      [
        "та",
        -9.058085441589355
      ],
      [
        "▁har",
        -9.061481475830078
      ],
      [
        "▁wu",
        -9.063840866088867
      ],
      [
        "ina",
        -9.064770698547363
      ],
      [
        "▁Mi",
        -9.06806755065918
      ],
      [
        "▁atu",
        -9.07140827178955
      ],
      [
        "▁ei",
        -9.076558113098145
      ],
      [
        "‘",
        -9.076826095581056
      ],
      [
        "▁ru",
        -9.078140258789062
      ],
      [
        "?”",
        -9.080459594726562
      ],
      [
        "ï",
        -9.081340789794922
      ],
      [
        "▁ben",
        -9.083600044250488
      ],
      [
        "▁ama",
        -9.085966110229492
      ],
      [
        "▁No",
        -9.087764739990234
      ],
      [
        "▁Israel",
        -9.088491439819336
      ],
      [
        "▁der",
        -9.09008502960205
      ],
      [
        "ं",
        -9.09165859222412
      ],
      [
        "лар",
        -9.093560218811035
      ],
      [
        "▁det",
        -9.09433364868164
      ],
      [
        "▁Ku",
        -9.094901084899902
      ],
      [
        "fa",
        -9.09669589996338
      ],
      [
        "▁ty",
        -9.0971040725708
      ],
      [
        "▁F",
        -9.101329803466797
      ],
      [
        "م",
        -9.101729393005373
      ],
      [
        "▁chu",
        -9.10201358795166
      ],
      [
        "▁ad",
        -9.103619575500488
      ],
      [
        "lla",
        -9.10895538330078
      ],
      [
        "▁J",
        -9.109557151794434
      ],
      [
        "ة",
        -9.112285614013672
      ],
      [
        "▁به",
        -9.113896369934082
      ],
      [
        "▁से",
        -9.114130020141602
      ],
      [
        "▁som",
        -9.120208740234377
      ],
      [
        "T",
        -9.121905326843262
      ],
      [
        "ej",
        -9.123522758483888
      ],
      [
        "ol",
        -9.127095222473145
      ],
      [
        "▁vo",
        -9.129732131958008
      ],
      [
        "▁oo",
        -9.130173683166504
      ],
      [
        "▁nɛ",
        -9.132095336914062
      ],
      [
        "ut",
        -9.136695861816406
      ],
      [
        "ин",
        -9.136981010437012
      ],
      [
        "▁من",
        -9.141632080078123
      ],
      [
        "▁din",
        -9.144463539123535
      ],
      [
        "id",
        -9.150184631347656
      ],
      [
        "▁ب",
        -9.1506929397583
      ],
      [
        "▁А",
        -9.151715278625488
      ],
      [
        "в",
        -9.15510082244873
      ],
      [
        "qa",
        -9.159696578979492
      ],
      [
        "▁au",
        -9.159784317016602
      ],
      [
        "▁qui",
        -9.16180419921875
      ],
      [
        "B",
        -9.165614128112791
      ],
      [
        "の",
        -9.169660568237305
      ],
      [
        "ла",
        -9.173768997192385
      ],
      [
        "▁Ha",
        -9.175318717956545
      ],
      [
        "▁Ti",
        -9.176199913024902
      ],
      [
        "▁bann",
        -9.178919792175291
      ],
      [
        "▁Ø",
        -9.180959701538086
      ],
      [
        "▁R",
        -9.181471824645996
      ],
      [
        "▁od",
        -9.182384490966797
      ],
      [
        "„",
        -9.182756423950195
      ],
      [
        "▁san",
        -9.183151245117188
      ],
      [
        "▁#",
        -9.185107231140137
      ],
      [
        "ze",
        -9.185508728027344
      ],
      [
        "▁kar",
        -9.186159133911133
      ],
      [
        "hu",
        -9.187300682067873
      ],
      [
        "▁mar",
        -9.188538551330566
      ],
      [
        "or",
        -9.197303771972656
      ],
      [
        "▁bona",
        -9.197592735290527
      ],
      [
        "▁х",
        -9.198387145996094
      ],
      [
        "▁»",
        -9.199264526367188
      ],
      [
        "▁ding",
        -9.20085620880127
      ],
      [
        "▁ed",
        -9.201348304748535
      ],
      [
        "▁في",
        -9.201630592346191
      ],
      [
        "▁mas",
        -9.202274322509766
      ],
      [
        "cha",
        -9.20557689666748
      ],
      [
        "▁kon",
        -9.205716133117676
      ],
      [
        "▁bir",
        -9.206585884094238
      ],
      [
        "lar",
        -9.207022666931152
      ],
      [
        "ꞌ",
        -9.209352493286133
      ],
      [
        "ly",
        -9.210874557495115
      ],
      [
        "س",
        -9.214735984802246
      ],
      [
        "▁Ci",
        -9.215065002441406
      ],
      [
        "́",
        -9.217498779296877
      ],
      [
        "U",
        -9.22138214111328
      ],
      [
        "▁ali",
        -9.222784042358398
      ],
      [
        "▁pai",
        -9.223464965820312
      ],
      [
        "▁nak",
        -9.224961280822754
      ],
      [
        "Na",
        -9.226312637329102
      ],
      [
        "yu",
        -9.22782039642334
      ],
      [
        "▁iti",
        -9.231709480285645
      ],
      [
        "▁dat",
        -9.23232078552246
      ],
      [
        "▁To",
        -9.233258247375488
      ],
      [
        "▁kun",
        -9.233548164367676
      ],
      [
        "▁tin",
        -9.233670234680176
      ],
      [
        "▁ɛ",
        -9.234561920166016
      ],
      [
        "oj",
        -9.23683738708496
      ],
      [
        "▁son",
        -9.23704719543457
      ],
      [
        "▁pro",
        -9.237542152404783
      ],
      [
        "▁ọ",
        -9.239441871643066
      ],
      [
        "ab",
        -9.241304397583008
      ],
      [
        "den",
        -9.244915962219238
      ],
      [
        "jo",
        -9.247509956359863
      ],
      [
        "▁gue",
        -9.24913501739502
      ],
      [
        "ን",
        -9.250182151794434
      ],
      [
        "▁zo",
        -9.250395774841309
      ],
      [
        "े",
        -9.253744125366213
      ],
      [
        "▁The",
        -9.254021644592283
      ],
      [
        "▁ze",
        -9.254685401916504
      ],
      [
        "▁naa",
        -9.25582790374756
      ],
      [
        "▁En",
        -9.256036758422852
      ],
      [
        "▁yɛ",
        -9.25692653656006
      ],
      [
        "nda",
        -9.257574081420898
      ],
      [
        "ay",
        -9.263619422912598
      ],
      [
        "‌",
        -9.264856338500977
      ],
      [
        "▁El",
        -9.26544952392578
      ],
      [
        "▁God",
        -9.265506744384766
      ],
      [
        "ç",
        -9.265544891357422
      ],
      [
        "vo",
        -9.266629219055176
      ],
      [
        "▁Mo",
        -9.267111778259276
      ],
      [
        "▁sk",
        -9.26914119720459
      ],
      [
        "▁can",
        -9.271760940551758
      ],
      [
        "ди",
        -9.273056030273438
      ],
      [
        "▁Ki",
        -9.2783842086792
      ],
      [
        "▁iz",
        -9.279078483581545
      ],
      [
        "▁او",
        -9.279537200927734
      ],
      [
        "▁fan",
        -9.279579162597656
      ],
      [
        "▁ut",
        -9.28055191040039
      ],
      [
        "ä",
        -9.282456398010254
      ],
      [
        "ita",
        -9.28396224975586
      ],
      [
        "▁nɔ",
        -9.284841537475586
      ],
      [
        "H",
        -9.28552532196045
      ],
      [
        "ini",
        -9.287400245666504
      ],
      [
        "–",
        -9.288357734680176
      ],
      [
        "ч",
        -9.290889739990234
      ],
      [
        "ts",
        -9.291160583496094
      ],
      [
        "▁С",
        -9.29275608062744
      ],
      [
        "▁var",
        -9.295730590820312
      ],
      [
        "▁wɔ",
        -9.295870780944824
      ],
      [
        "▁kam",
        -9.29711627960205
      ],
      [
        "▁ada",
        -9.298246383666992
      ],
      [
        "▁aw",
        -9.30001163482666
      ],
      [
        "▁W",
        -9.30212116241455
      ],
      [
        "▁ih",
        -9.304543495178224
      ],
      [
        "▁Re",
        -9.305994033813477
      ],
      [
        "▁dé",
        -9.306774139404297
      ],
      [
        "▁Q",
        -9.30946445465088
      ],
      [
        "P",
        -9.309946060180664
      ],
      [
        "▁ati",
        -9.310938835144045
      ],
      [
        "▁sing",
        -9.314427375793455
      ],
      [
        ",”",
        -9.31479263305664
      ],
      [
        "▁tal",
        -9.31573486328125
      ],
      [
        "▁på",
        -9.3157377243042
      ],
      [
        "б",
        -9.32150173187256
      ],
      [
        "са",
        -9.321683883666992
      ],
      [
        "▁fo",
        -9.321998596191406
      ],
      [
        "з",
        -9.323750495910645
      ],
      [
        "ɛ",
        -9.324260711669922
      ],
      [
        "com",
        -9.326083183288574
      ],
      [
        "▁ol",
        -9.326680183410645
      ],
      [
        "ка",
        -9.326929092407228
      ],
      [
        "▁dem",
        -9.327771186828612
      ],
      [
        "▁Be",
        -9.328336715698242
      ],
      [
        "ым",
        -9.329571723937988
      ],
      [
        "chu",
        -9.329634666442873
      ],
      [
        "han",
        -9.331013679504396
      ],
      [
        "▁med",
        -9.331316947937012
      ],
      [
        "▁est",
        -9.333986282348633
      ],
      [
        "san",
        -9.335436820983888
      ],
      [
        "▁по",
        -9.336374282836914
      ],
      [
        "▁kom",
        -9.33709716796875
      ],
      [
        "zo",
        -9.337596893310549
      ],
      [
        "▁،",
        -9.341130256652832
      ],
      [
        "▁tha",
        -9.341365814208984
      ],
      [
        "lan",
        -9.341421127319336
      ],
      [
        "fi",
        -9.343594551086426
      ],
      [
        "▁mba",
        -9.344234466552734
      ],
      [
        "▁ese",
        -9.344782829284668
      ],
      [
        "▁kay",
        -9.346957206726074
      ],
      [
        "ар",
        -9.350751876831056
      ],
      [
        "▁lai",
        -9.3530912399292
      ],
      [
        "▁г",
        -9.353278160095217
      ],
      [
        "▁kana",
        -9.353789329528809
      ],
      [
        "ten",
        -9.356488227844238
      ],
      [
        "kuna",
        -9.359220504760742
      ],
      [
        "sha",
        -9.360726356506348
      ],
      [
        "▁f",
        -9.364998817443848
      ],
      [
        ".\"",
        -9.366982460021973
      ],
      [
        "ad",
        -9.370951652526855
      ],
      [
        "”.",
        -9.371312141418455
      ],
      [
        "▁कि",
        -9.37138843536377
      ],
      [
        "▁nya",
        -9.374309539794922
      ],
      [
        "▁م",
        -9.37533187866211
      ],
      [
        "ih",
        -9.376001358032228
      ],
      [
        "▁از",
        -9.379799842834473
      ],
      [
        "▁К",
        -9.37987232208252
      ],
      [
        "°",
        -9.381239891052246
      ],
      [
        "▁met",
        -9.383296012878418
      ],
      [
        "▁з",
        -9.383525848388672
      ],
      [
        "▁mea",
        -9.383708000183104
      ],
      [
        "▁sé",
        -9.38451862335205
      ],
      [
        "▁you",
        -9.3847074508667
      ],
      [
        "▁क",
        -9.385479927062988
      ],
      [
        "▁*",
        -9.386173248291016
      ],
      [
        "ndo",
        -9.387958526611328
      ],
      [
        "▁Yesus",
        -9.393048286437988
      ],
      [
        "▁کے",
        -9.393717765808104
      ],
      [
        "che",
        -9.39601993560791
      ],
      [
        "▁ба",
        -9.39606761932373
      ],
      [
        "де",
        -9.397839546203612
      ],
      [
        "▁په",
        -9.398106575012209
      ],
      [
        "▁ima",
        -9.399853706359863
      ],
      [
        "iya",
        -9.40046501159668
      ],
      [
        "▁kha",
        -9.400885581970217
      ],
      [
        "个",
        -9.40157413482666
      ],
      [
        "▁pre",
        -9.40162754058838
      ],
      [
        "▁blong",
        -9.401996612548828
      ],
      [
        "▁Ri",
        -9.40471649169922
      ],
      [
        "▁es",
        -9.40603256225586
      ],
      [
        "▁aur",
        -9.40867519378662
      ],
      [
        "ran",
        -9.40945529937744
      ],
      [
        "ok",
        -9.40971565246582
      ],
      [
        "▁unu",
        -9.411590576171877
      ],
      [
        "¯",
        -9.41263484954834
      ],
      [
        "ata",
        -9.412949562072754
      ],
      [
        "ij",
        -9.413325309753418
      ],
      [
        "ɔ",
        -9.413422584533691
      ],
      [
        "ama",
        -9.415207862854004
      ],
      [
        "▁maka",
        -9.415675163269045
      ],
      [
        "▁，",
        -9.415746688842772
      ],
      [
        "▁tsa",
        -9.416671752929688
      ],
      [
        "ter",
        -9.420893669128418
      ],
      [
        "aw",
        -9.42185115814209
      ],
      [
        "▁apa",
        -9.421853065490724
      ],
      [
        "▁ene",
        -9.42222499847412
      ],
      [
        "\\",
        -9.423920631408691
      ],
      [
        "▁бир",
        -9.424005508422852
      ],
      [
        "▁pas",
        -9.4244966506958
      ],
      [
        "▁Da",
        -9.424741744995115
      ],
      [
        "त",
        -9.424834251403809
      ],
      [
        "▁Bu",
        -9.425437927246094
      ],
      [
        "▁eo",
        -9.425911903381348
      ],
      [
        "men",
        -9.426043510437012
      ],
      [
        "▁pan",
        -9.426217079162598
      ],
      [
        "▁ken",
        -9.427165031433104
      ],
      [
        "▁ber",
        -9.42724895477295
      ],
      [
        "▁dhe",
        -9.427581787109377
      ],
      [
        "▁agus",
        -9.430651664733888
      ],
      [
        "▁vha",
        -9.431558609008787
      ],
      [
        "ā",
        -9.431735038757324
      ],
      [
        "сь",
        -9.43247890472412
      ],
      [
        "▁em",
        -9.43381690979004
      ],
      [
        "ма",
        -9.434685707092283
      ],
      [
        "是",
        -9.435359001159668
      ],
      [
        "†",
        -9.438257217407228
      ],
      [
        "eu",
        -9.44027328491211
      ],
      [
        "▁ce",
        -9.440951347351074
      ],
      [
        "▁q",
        -9.445524215698242
      ],
      [
        "nin",
        -9.446362495422363
      ],
      [
        "pu",
        -9.447173118591309
      ],
      [
        "▁taki",
        -9.448625564575195
      ],
      [
        "▁Z",
        -9.45083713531494
      ],
      [
        "`",
        -9.45110034942627
      ],
      [
        "▁ts",
        -9.451944351196287
      ],
      [
        "▁taa",
        -9.453338623046877
      ],
      [
        "Ma",
        -9.457109451293944
      ],
      [
        "▁Pe",
        -9.458271980285645
      ],
      [
        "tik",
        -9.463260650634766
      ],
      [
        "▁naj",
        -9.46454906463623
      ],
      [
        "´",
        -9.465776443481444
      ],
      [
        "▁gin",
        -9.466923713684082
      ],
      [
        "▁nun",
        -9.467645645141602
      ],
      [
        "▁ngo",
        -9.469619750976562
      ],
      [
        "▁ت",
        -9.469762802124023
      ],
      [
        "ат",
        -9.472780227661133
      ],
      [
        "ل",
        -9.473173141479492
      ],
      [
        "▁pag",
        -9.474830627441406
      ],
      [
        "ा",
        -9.477828979492188
      ],
      [
        "tongo",
        -9.478198051452637
      ],
      [
        "ь",
        -9.478704452514648
      ],
      [
        "▁Ye",
        -9.479866027832031
      ],
      [
        "▁yan",
        -9.480358123779297
      ],
      [
        "lik",
        -9.480531692504885
      ],
      [
        "▁جي",
        -9.482148170471191
      ],
      [
        ".—",
        -9.48389720916748
      ],
      [
        "▁cun",
        -9.486639022827148
      ],
      [
        "xi",
        -9.486907958984377
      ],
      [
        "▁kin",
        -9.487622261047363
      ],
      [
        "▁sama",
        -9.488990783691406
      ],
      [
        "sh",
        -9.489168167114258
      ],
      [
        "ات",
        -9.48922348022461
      ],
      [
        "▁non",
        -9.49097728729248
      ],
      [
        "▁or",
        -9.494403839111328
      ],
      [
        "▁So",
        -9.49448299407959
      ],
      [
        "ken",
        -9.494491577148438
      ],
      [
        "▁dai",
        -9.49551486968994
      ],
      [
        "ani",
        -9.498286247253418
      ],
      [
        "nak",
        -9.499226570129396
      ],
      [
        "tak",
        -9.502066612243652
      ],
      [
        "дан",
        -9.50391960144043
      ],
      [
        "▁nang",
        -9.50754165649414
      ],
      [
        "▁qu",
        -9.508112907409668
      ],
      [
        "▁ç",
        -9.508715629577637
      ],
      [
        "▁का",
        -9.509422302246094
      ],
      [
        "▁fɔ",
        -9.51025104522705
      ],
      [
        "▁kita",
        -9.511985778808594
      ],
      [
        "▁पर",
        -9.513659477233888
      ],
      [
        "shi",
        -9.514222145080566
      ],
      [
        "▁fer",
        -9.51466464996338
      ],
      [
        "œ",
        -9.515971183776855
      ],
      [
        "▁ки",
        -9.522577285766602
      ],
      [
        "▁het",
        -9.523699760437012
      ],
      [
        "▁amo",
        -9.52621078491211
      ],
      [
        "nt",
        -9.52747631072998
      ],
      [
        "â",
        -9.528298377990724
      ],
      [
        "▁і",
        -9.52858829498291
      ],
      [
        "▁aba",
        -9.528815269470217
      ],
      [
        "au",
        -9.53039264678955
      ],
      [
        "▁uma",
        -9.530694007873535
      ],
      [
        "не",
        -9.530843734741213
      ],
      [
        "▁uh",
        -9.531497955322266
      ],
      [
        "▁я",
        -9.532325744628906
      ],
      [
        "▁та",
        -9.53294563293457
      ],
      [
        "▁eta",
        -9.535185813903809
      ],
      [
        "▁Biblia",
        -9.53599452972412
      ],
      [
        "²",
        -9.537312507629396
      ],
      [
        "▁شکن",
        -9.537744522094728
      ],
      [
        "▁mag",
        -9.537888526916504
      ],
      [
        "ж",
        -9.538317680358888
      ],
      [
        "ele",
        -9.542943954467772
      ],
      [
        "ó",
        -9.543842315673828
      ],
      [
        "que",
        -9.545634269714355
      ],
      [
        "apos",
        -9.54613971710205
      ],
      [
        "▁•",
        -9.547552108764648
      ],
      [
        "▁Jehová",
        -9.549094200134276
      ],
      [
        "ды",
        -9.550052642822266
      ],
      [
        "▁û",
        -9.550114631652832
      ],
      [
        "▁kwe",
        -9.550665855407717
      ],
      [
        "▁aka",
        -9.551910400390623
      ],
      [
        "·",
        -9.552650451660156
      ],
      [
        "▁las",
        -9.553532600402832
      ],
      [
        "年",
        -9.55587100982666
      ],
      [
        "▁kaj",
        -9.556559562683104
      ],
      [
        "▁fe",
        -9.556739807128906
      ],
      [
        "нь",
        -9.557406425476074
      ],
      [
        "▁но",
        -9.557476997375488
      ],
      [
        "▁Bible",
        -9.55794906616211
      ],
      [
        "ning",
        -9.559350967407228
      ],
      [
        "‑",
        -9.561394691467283
      ],
      [
        "ap",
        -9.562688827514648
      ],
      [
        "▁Je",
        -9.562702178955078
      ],
      [
        "▁He",
        -9.56290340423584
      ],
      [
        "ен",
        -9.566439628601074
      ],
      [
        "ale",
        -9.5676851272583
      ],
      [
        "▁té",
        -9.568866729736328
      ],
      [
        "▁nee",
        -9.569016456604004
      ],
      [
        "▁त",
        -9.569173812866213
      ],
      [
        "▁Yehowa",
        -9.569252014160156
      ],
      [
        "ŋ",
        -9.569740295410156
      ],
      [
        "▁די",
        -9.570317268371582
      ],
      [
        "▁tama",
        -9.571308135986328
      ],
      [
        "лы",
        -9.571440696716309
      ],
      [
        "tin",
        -9.57285213470459
      ],
      [
        "▁ser",
        -9.573092460632324
      ],
      [
        "yan",
        -9.573570251464844
      ],
      [
        "▁af",
        -9.574569702148438
      ],
      [
        "▁sy",
        -9.575884819030762
      ],
      [
        "मा",
        -9.576671600341797
      ],
      [
        "wu",
        -9.577332496643066
      ],
      [
        "▁У",
        -9.57760524749756
      ],
      [
        "len",
        -9.57811164855957
      ],
      [
        "▁ee",
        -9.578447341918944
      ],
      [
        "ला",
        -9.580586433410645
      ],
      [
        "▁lam",
        -9.581072807312012
      ],
      [
        "▁nei",
        -9.581219673156738
      ],
      [
        "▁ц",
        -9.581660270690918
      ],
      [
        "▁iha",
        -9.58167839050293
      ],
      [
        "ý",
        -9.582176208496094
      ],
      [
        "ም",
        -9.582348823547363
      ],
      [
        "▁id",
        -9.583471298217772
      ],
      [
        "▁are",
        -9.583824157714844
      ],
      [
        "▁mɛ",
        -9.584343910217283
      ],
      [
        "fe",
        -9.584808349609377
      ],
      [
        "▁los",
        -9.585217475891112
      ],
      [
        "या",
        -9.585267066955566
      ],
      [
        "ñ",
        -9.586153030395508
      ],
      [
        "▁thu",
        -9.58747386932373
      ],
      [
        "der",
        -9.589000701904297
      ],
      [
        "▁е",
        -9.59087371826172
      ],
      [
        "▁Ar",
        -9.591727256774902
      ],
      [
        "▁با",
        -9.591729164123535
      ],
      [
        "но",
        -9.59202480316162
      ],
      [
        "ት",
        -9.592610359191896
      ],
      [
        "fo",
        -9.593643188476562
      ],
      [
        "▁ari",
        -9.593981742858888
      ],
      [
        "▁X",
        -9.59481430053711
      ],
      [
        "▁со",
        -9.596808433532717
      ],
      [
        "▁س",
        -9.598176956176758
      ],
      [
        "▁wali",
        -9.59860610961914
      ],
      [
        "aq",
        -9.598678588867188
      ],
      [
        "eg",
        -9.599238395690918
      ],
      [
        "▁dari",
        -9.601388931274414
      ],
      [
        "人",
        -9.605024337768556
      ],
      [
        "L",
        -9.607307434082031
      ],
      [
        "▁ñi",
        -9.607609748840332
      ],
      [
        "ৰ",
        -9.60898780822754
      ],
      [
        "³",
        -9.61370086669922
      ],
      [
        "▁nia",
        -9.614744186401367
      ],
      [
        "”,",
        -9.615056991577148
      ],
      [
        "▁Т",
        -9.615427017211914
      ],
      [
        "▁bad",
        -9.61568546295166
      ],
      [
        "▁ver",
        -9.615964889526367
      ],
      [
        "▁lun",
        -9.616317749023438
      ],
      [
        "▁bar",
        -9.616531372070312
      ],
      [
        "▁cho",
        -9.616570472717283
      ],
      [
        "▁Fa",
        -9.617767333984377
      ],
      [
        "▁nā",
        -9.617956161499023
      ],
      [
        "ان",
        -9.61872100830078
      ],
      [
        "▁Tu",
        -9.619080543518066
      ],
      [
        "▁dy",
        -9.61938190460205
      ],
      [
        "▁nye",
        -9.619487762451172
      ],
      [
        ".+",
        -9.619758605957031
      ],
      [
        "kin",
        -9.620221138000488
      ],
      [
        "*",
        -9.621027946472168
      ],
      [
        "!”",
        -9.621294021606444
      ],
      [
        "▁ag",
        -9.622785568237305
      ],
      [
        "ге",
        -9.6228666305542
      ],
      [
        "▁në",
        -9.623263359069824
      ],
      [
        "▁pri",
        -9.624428749084473
      ],
      [
        "▁anu",
        -9.624622344970703
      ],
      [
        "▁een",
        -9.627636909484863
      ],
      [
        "tar",
        -9.62768840789795
      ],
      [
        "ite",
        -9.629310607910156
      ],
      [
        "▁awọn",
        -9.62995433807373
      ],
      [
        "▁amin",
        -9.630541801452637
      ],
      [
        "ña",
        -9.630956649780272
      ],
      [
        "▁Yehova",
        -9.63345718383789
      ],
      [
        "▁ap",
        -9.638461112976074
      ],
      [
        "xa",
        -9.639286041259766
      ],
      [
        "▁که",
        -9.640127182006836
      ],
      [
        "को",
        -9.641056060791016
      ],
      [
        "ban",
        -9.641984939575195
      ],
      [
        "▁dong",
        -9.642327308654783
      ],
      [
        "▁бу",
        -9.642590522766112
      ],
      [
        "▁καὶ",
        -9.642743110656738
      ],
      [
        "ler",
        -9.643044471740724
      ],
      [
        "nd",
        -9.643555641174316
      ],
      [
        "ene",
        -9.644149780273438
      ],
      [
        "ee",
        -9.644757270812988
      ],
      [
        "cu",
        -9.647994041442873
      ],
      [
        "▁éí",
        -9.648585319519045
      ],
      [
        "¨",
        -9.64869785308838
      ],
      [
        "ic",
        -9.649249076843262
      ],
      [
        "ги",
        -9.649614334106444
      ],
      [
        "▁را",
        -9.650815963745115
      ],
      [
        "▁کی",
        -9.651607513427734
      ],
      [
        "▁لە",
        -9.652426719665527
      ],
      [
        "▁Jehovah",
        -9.652507781982422
      ],
      [
        "▁Wa",
        -9.654167175292969
      ],
      [
        "ς",
        -9.65516185760498
      ],
      [
        "▁don",
        -9.65528392791748
      ],
      [
        "▁pour",
        -9.655365943908691
      ],
      [
        "ть",
        -9.657200813293455
      ],
      [
        "ра",
        -9.657382011413574
      ],
      [
        "ल",
        -9.657401084899902
      ],
      [
        "▁ea",
        -9.65746784210205
      ],
      [
        "이",
        -9.657764434814451
      ],
      [
        "▁Lo",
        -9.65832233428955
      ],
      [
        "▁во",
        -9.660204887390137
      ],
      [
        "ari",
        -9.661304473876951
      ],
      [
        "V",
        -9.661376953125
      ],
      [
        "sen",
        -9.662574768066406
      ],
      [
        "▁iyo",
        -9.66329288482666
      ],
      [
        "▁Ho",
        -9.666510581970217
      ],
      [
        "ane",
        -9.667041778564451
      ],
      [
        "▁bhai",
        -9.668020248413086
      ],
      [
        "र",
        -9.668086051940918
      ],
      [
        "▁ngan",
        -9.6690673828125
      ],
      [
        "▁Size",
        -9.670390129089355
      ],
      [
        "▁ona",
        -9.670928001403809
      ],
      [
        "▁zot",
        -9.670981407165527
      ],
      [
        "▁och",
        -9.6722412109375
      ],
      [
        "▁itu",
        -9.674100875854492
      ],
      [
        "uli",
        -9.674680709838867
      ],
      [
        "era",
        -9.677546501159668
      ],
      [
        "།",
        -9.678072929382324
      ],
      [
        "▁az",
        -9.680047988891602
      ],
      [
        "pas",
        -9.680065155029297
      ],
      [
        "ara",
        -9.6802978515625
      ],
      [
        "د",
        -9.681166648864746
      ],
      [
        "ал",
        -9.682190895080566
      ],
      [
        "▁oku",
        -9.683223724365234
      ],
      [
        "R",
        -9.683584213256836
      ],
      [
        "▁dengan",
        -9.684492111206056
      ],
      [
        "▁ч",
        -9.685275077819824
      ],
      [
        "▁David",
        -9.68589973449707
      ],
      [
        "ش",
        -9.686844825744627
      ],
      [
        "▁tur",
        -9.687414169311523
      ],
      [
        "▁eb",
        -9.687678337097168
      ],
      [
        "son",
        -9.689738273620604
      ],
      [
        "▁ה",
        -9.690008163452148
      ],
      [
        "tha",
        -9.690646171569824
      ],
      [
        "nde",
        -9.69158172607422
      ],
      [
        "▁was",
        -9.691807746887209
      ],
      [
        "ти",
        -9.691856384277344
      ],
      [
        "rin",
        -9.69235897064209
      ],
      [
        "ment",
        -9.692736625671388
      ],
      [
        "sta",
        -9.694244384765623
      ],
      [
        "ى",
        -9.694341659545898
      ],
      [
        "ren",
        -9.694498062133787
      ],
      [
        "ie",
        -9.69542121887207
      ],
      [
        "▁Hi",
        -9.696107864379885
      ],
      [
        "nar",
        -9.696148872375488
      ],
      [
        "▁matters",
        -9.69695281982422
      ],
      [
        "▁may",
        -9.697248458862305
      ],
      [
        "ty",
        -9.699707984924316
      ],
      [
        "▁ita",
        -9.699862480163574
      ],
      [
        "▁dee",
        -9.700714111328123
      ],
      [
        "ada",
        -9.70146369934082
      ],
      [
        "▁Nu",
        -9.702000617980955
      ],
      [
        "▁bisa",
        -9.705034255981444
      ],
      [
        "▁В",
        -9.705233573913574
      ],
      [
        "ले",
        -9.70555591583252
      ],
      [
        "▁Ga",
        -9.70676612854004
      ],
      [
        "ہ",
        -9.707529067993164
      ],
      [
        "▁lao",
        -9.709177017211914
      ],
      [
        "ben",
        -9.70936393737793
      ],
      [
        "▁Po",
        -9.712268829345703
      ],
      [
        "ли",
        -9.712420463562012
      ],
      [
        "cho",
        -9.713943481445312
      ],
      [
        "▁एक",
        -9.714492797851562
      ],
      [
        "ã",
        -9.715280532836914
      ],
      [
        "▁Cristo",
        -9.718299865722656
      ],
      [
        "▁Bi",
        -9.718461990356444
      ],
      [
        "▁Al",
        -9.718999862670898
      ],
      [
        "\".",
        -9.719645500183104
      ],
      [
        "▁lé",
        -9.720550537109377
      ],
      [
        "▁हो",
        -9.721360206604004
      ],
      [
        "▁kum",
        -9.72153663635254
      ],
      [
        "▁dalam",
        -9.722102165222168
      ],
      [
        "ል",
        -9.722786903381348
      ],
      [
        "ii",
        -9.722986221313477
      ],
      [
        "▁dɛn",
        -9.724543571472168
      ],
      [
        "▁und",
        -9.72486686706543
      ],
      [
        "▁kä",
        -9.725146293640137
      ],
      [
        "▁Su",
        -9.725396156311035
      ],
      [
        "▁emi",
        -9.725987434387209
      ],
      [
        "۔",
        -9.725996971130373
      ],
      [
        "•",
        -9.72618579864502
      ],
      [
        "▁است",
        -9.726377487182615
      ],
      [
        "▁San",
        -9.727672576904297
      ],
      [
        "▁nde",
        -9.728034019470217
      ],
      [
        "▁Ù",
        -9.73297882080078
      ],
      [
        "ere",
        -9.733013153076172
      ],
      [
        "အ",
        -9.733266830444336
      ],
      [
        "vu",
        -9.734038352966309
      ],
      [
        "sin",
        -9.735485076904297
      ],
      [
        "▁að",
        -9.735723495483398
      ],
      [
        "▁orang",
        -9.736635208129885
      ],
      [
        "ر",
        -9.736971855163574
      ],
      [
        "▁Allah",
        -9.737473487854004
      ],
      [
        "▁М",
        -9.737653732299805
      ],
      [
        "▁hin",
        -9.737837791442873
      ],
      [
        "ı",
        -9.7383394241333
      ],
      [
        "▁ara",
        -9.738357543945312
      ],
      [
        "î",
        -9.739250183105469
      ],
      [
        "ua",
        -9.73969554901123
      ],
      [
        "▁wà",
        -9.740194320678713
      ],
      [
        "oku",
        -9.740769386291504
      ],
      [
        "ε",
        -9.741007804870604
      ],
      [
        "▁Ra",
        -9.741028785705566
      ],
      [
        "dy",
        -9.741216659545898
      ],
      [
        "▁tse",
        -9.7427339553833
      ],
      [
        "က",
        -9.743204116821287
      ],
      [
        "▁ren",
        -9.744159698486328
      ],
      [
        "▁پر",
        -9.745277404785156
      ],
      [
        "▁air",
        -9.745431900024414
      ],
      [
        "».",
        -9.745485305786133
      ],
      [
        "F",
        -9.745737075805664
      ],
      [
        "का",
        -9.747319221496582
      ],
      [
        "▁ale",
        -9.750638008117676
      ],
      [
        "ys",
        -9.751235961914062
      ],
      [
        "▁од",
        -9.75167751312256
      ],
      [
        "ः",
        -9.751707077026367
      ],
      [
        "▁toy",
        -9.75255012512207
      ],
      [
        "▁iki",
        -9.752723693847656
      ],
      [
        "▁oni",
        -9.752851486206056
      ],
      [
        "▁qa",
        -9.753788948059082
      ],
      [
        "ና",
        -9.754039764404297
      ],
      [
        "▁до",
        -9.754701614379885
      ],
      [
        "▁д",
        -9.75495433807373
      ],
      [
        "те",
        -9.756569862365724
      ],
      [
        "ты",
        -9.756945610046388
      ],
      [
        "有",
        -9.757573127746582
      ],
      [
        "▁nie",
        -9.759300231933594
      ],
      [
        "▁от",
        -9.759356498718262
      ],
      [
        "▁nọ",
        -9.760893821716309
      ],
      [
        "▁zu",
        -9.760952949523926
      ],
      [
        "ну",
        -9.761608123779297
      ],
      [
        "▁Jehova",
        -9.764137268066406
      ],
      [
        "▁idia",
        -9.764324188232422
      ],
      [
        "aba",
        -9.76512050628662
      ],
      [
        "kar",
        -9.765999794006348
      ],
      [
        "▁де",
        -9.767010688781738
      ],
      [
        "▁laj",
        -9.767621040344238
      ],
      [
        "▁xin",
        -9.768190383911133
      ],
      [
        "▁oh",
        -9.769867897033691
      ],
      [
        "iti",
        -9.77151870727539
      ],
      [
        "▁дар",
        -9.772031784057615
      ],
      [
        "ки",
        -9.772037506103516
      ],
      [
        "min",
        -9.772141456604004
      ],
      [
        "aa",
        -9.772147178649902
      ],
      [
        "▁lau",
        -9.77222728729248
      ],
      [
        "▁tou",
        -9.77299690246582
      ],
      [
        "nen",
        -9.773505210876465
      ],
      [
        "▁bia",
        -9.774407386779783
      ],
      [
        "он",
        -9.776799201965332
      ],
      [
        "ste",
        -9.778916358947754
      ],
      [
        "▁sɛ",
        -9.780388832092283
      ],
      [
        "Y",
        -9.783817291259766
      ],
      [
        "sti",
        -9.78463077545166
      ],
      [
        "：",
        -9.784760475158691
      ],
      [
        "▁oli",
        -9.785202980041504
      ],
      [
        "▁kuma",
        -9.785907745361328
      ],
      [
        "ꞈ",
        -9.786048889160156
      ],
      [
        "ú",
        -9.786243438720703
      ],
      [
        "▁era",
        -9.786311149597168
      ],
      [
        "‡",
        -9.787842750549316
      ],
      [
        "大",
        -9.787912368774414
      ],
      [
        "▁mpo",
        -9.788656234741213
      ],
      [
        "tel",
        -9.78878116607666
      ],
      [
        "▁အ",
        -9.789855003356934
      ],
      [
        "▁huan",
        -9.79047966003418
      ],
      [
        "▁अ",
        -9.792734146118164
      ],
      [
        "म",
        -9.793102264404297
      ],
      [
        "lɛ",
        -9.793448448181152
      ],
      [
        "▁bon",
        -9.793526649475098
      ],
      [
        "▁ebe",
        -9.79383945465088
      ],
      [
        "▁dal",
        -9.796377182006836
      ],
      [
        "ali",
        -9.797467231750488
      ],
      [
        "ọ",
        -9.79794692993164
      ],
      [
        "▁hpe",
        -9.798812866210938
      ],
      [
        "▁sok",
        -9.799665451049805
      ],
      [
        "ile",
        -9.799880027770996
      ],
      [
        "▁nih",
        -9.800013542175291
      ],
      [
        "▁Bo",
        -9.800046920776367
      ],
      [
        "ac",
        -9.80014705657959
      ],
      [
        "▁mei",
        -9.800424575805664
      ],
      [
        "▁tar",
        -9.800519943237305
      ],
      [
        "▁है",
        -9.802189826965332
      ],
      [
        "tz",
        -9.802793502807615
      ],
      [
        "://",
        -9.803414344787598
      ],
      [
        "▁anak",
        -9.803559303283691
      ],
      [
        "▁tam",
        -9.8037691116333
      ],
      [
        "Ka",
        -9.806856155395508
      ],
      [
        "▁tla",
        -9.807209014892578
      ],
      [
        "thu",
        -9.807250022888184
      ],
      [
        "▁स",
        -9.80766487121582
      ],
      [
        "▁$",
        -9.80808162689209
      ],
      [
        "▁sink",
        -9.808094024658203
      ],
      [
        "▁།",
        -9.809526443481444
      ],
      [
        "स",
        -9.810643196105955
      ],
      [
        "ver",
        -9.81077766418457
      ],
      [
        "▁О",
        -9.811450004577637
      ],
      [
        "▁Go",
        -9.811951637268066
      ],
      [
        "▁п",
        -9.813252449035645
      ],
      [
        "▁mɔɔ",
        -9.81478500366211
      ],
      [
        "▁rau",
        -9.81588363647461
      ],
      [
        "»,",
        -9.816414833068848
      ],
      [
        "ag",
        -9.81755828857422
      ],
      [
        "ü",
        -9.818431854248049
      ],
      [
        "gan",
        -9.818951606750488
      ],
      [
        "▁میں",
        -9.819775581359863
      ],
      [
        "▁की",
        -9.820024490356444
      ],
      [
        "ima",
        -9.820463180541992
      ],
      [
        "▁xe",
        -9.82059097290039
      ],
      [
        "▁mata",
        -9.820669174194336
      ],
      [
        "▁бар",
        -9.821393013000488
      ],
      [
        "▁Chi",
        -9.821707725524902
      ],
      [
        "▁bʌ",
        -9.823107719421388
      ],
      [
        "을",
        -9.823237419128418
      ],
      [
        "▁oj",
        -9.82383918762207
      ],
      [
        "▁cov",
        -9.825057983398438
      ],
      [
        "▁Sign",
        -9.82540512084961
      ],
      [
        "دا",
        -9.825702667236328
      ],
      [
        "▁sia",
        -9.826546669006348
      ],
      [
        "ем",
        -9.82705307006836
      ],
      [
        "от",
        -9.827350616455078
      ],
      [
        "ui",
        -9.82749843597412
      ],
      [
        "▁Language",
        -9.82812213897705
      ],
      [
        "▁þe",
        -9.828258514404297
      ],
      [
        "ча",
        -9.828750610351562
      ],
      [
        "ton",
        -9.829437255859377
      ],
      [
        "ے",
        -9.829733848571776
      ],
      [
        "are",
        -9.83034896850586
      ],
      [
        "▁ug",
        -9.830455780029297
      ],
      [
        "▁uku",
        -9.830498695373535
      ],
      [
        "op",
        -9.831294059753418
      ],
      [
        "▁ل",
        -9.832019805908203
      ],
      [
        "▁ina",
        -9.833683967590332
      ],
      [
        "io",
        -9.833998680114746
      ],
      [
        "▁የ",
        -9.834607124328612
      ],
      [
        "ν",
        -9.83507251739502
      ],
      [
        "▁Jesu",
        -9.835336685180664
      ],
      [
        "▁umu",
        -9.836441040039062
      ],
      [
        "ine",
        -9.83690357208252
      ],
      [
        "▁ten",
        -9.837035179138184
      ],
      [
        "▁ora",
        -9.83752727508545
      ],
      [
        "▁nyang",
        -9.839226722717283
      ],
      [
        "▁ב",
        -9.839427947998049
      ],
      [
        "▁mein",
        -9.839802742004396
      ],
      [
        "mba",
        -9.840192794799805
      ],
      [
        "▁Comam",
        -9.84030818939209
      ],
      [
        "▁છે",
        -9.843063354492188
      ],
      [
        "▁pada",
        -9.84528350830078
      ],
      [
        "SS",
        -9.845561027526855
      ],
      [
        "▁‵",
        -9.845792770385742
      ],
      [
        "▁Jisas",
        -9.84615707397461
      ],
      [
        "▁bua",
        -9.846424102783203
      ],
      [
        "▁ná",
        -9.846772193908691
      ],
      [
        "mar",
        -9.846890449523926
      ],
      [
        "▁her",
        -9.847183227539062
      ],
      [
        "▁aj",
        -9.847492218017578
      ],
      [
        "▁ata",
        -9.848572731018066
      ],
      [
        "▁akan",
        -9.849532127380373
      ],
      [
        "▁gore",
        -9.850147247314451
      ],
      [
        "▁και",
        -9.850221633911133
      ],
      [
        "▁kala",
        -9.850987434387209
      ],
      [
        "ов",
        -9.851746559143066
      ],
      [
        "▁म",
        -9.85213851928711
      ],
      [
        "▁tun",
        -9.852558135986328
      ],
      [
        "ant",
        -9.852575302124023
      ],
      [
        "의",
        -9.852614402770996
      ],
      [
        "▁те",
        -9.85323715209961
      ],
      [
        "▁pen",
        -9.854121208190918
      ],
      [
        "fu",
        -9.854544639587402
      ],
      [
        "▁са",
        -9.854766845703123
      ],
      [
        "PS",
        -9.856648445129396
      ],
      [
        "▁Za",
        -9.857059478759766
      ],
      [
        "▁oko",
        -9.857247352600098
      ],
      [
        "ov",
        -9.857346534729004
      ],
      [
        "▁>",
        -9.857828140258787
      ],
      [
        "▁with",
        -9.858174324035645
      ],
      [
        "▁nna",
        -9.858864784240724
      ],
      [
        "▁جو",
        -9.85952091217041
      ],
      [
        "▁mat",
        -9.86016845703125
      ],
      [
        "the",
        -9.86108684539795
      ],
      [
        "ona",
        -9.861547470092772
      ],
      [
        "ou",
        -9.862571716308594
      ],
      [
        "tsi",
        -9.862833023071287
      ],
      [
        "▁და",
        -9.862844467163086
      ],
      [
        "না",
        -9.863380432128906
      ],
      [
        "né",
        -9.863487243652344
      ],
      [
        "▁kau",
        -9.864301681518556
      ],
      [
        "J",
        -9.864398002624512
      ],
      [
        "▁pung",
        -9.864501953125
      ],
      [
        "▁asa",
        -9.865567207336426
      ],
      [
        "▁И",
        -9.866047859191896
      ],
      [
        "▁በ",
        -9.867093086242676
      ],
      [
        "ле",
        -9.867754936218262
      ],
      [
        "▁apo",
        -9.868163108825684
      ],
      [
        "kon",
        -9.86892032623291
      ],
      [
        "▁kei",
        -9.869447708129885
      ],
      [
        "▁bé",
        -9.87071418762207
      ],
      [
        "eh",
        -9.8714017868042
      ],
      [
        "▁fai",
        -9.872488975524902
      ],
      [
        "▁tshi",
        -9.874181747436523
      ],
      [
        "▁ɨ",
        -9.875258445739746
      ],
      [
        "▁ол",
        -9.876548767089844
      ],
      [
        "▁asi",
        -9.87757968902588
      ],
      [
        "▁bara",
        -9.878087043762209
      ],
      [
        "▁Pablo",
        -9.878393173217772
      ],
      [
        "▁nyan",
        -9.878952026367188
      ],
      [
        "ር",
        -9.879222869873049
      ],
      [
        "ura",
        -9.88085651397705
      ],
      [
        "▁dah",
        -9.88094425201416
      ],
      [
        "▁As",
        -9.881047248840332
      ],
      [
        "▁mɔ",
        -9.881118774414062
      ],
      [
        "ei",
        -9.881691932678224
      ],
      [
        "▁dua",
        -9.882827758789062
      ],
      [
        "ske",
        -9.88321590423584
      ],
      [
        "▁sai",
        -9.883659362792969
      ],
      [
        "▁ane",
        -9.887192726135254
      ],
      [
        "▁xu",
        -9.887261390686035
      ],
      [
        "ela",
        -9.887465476989746
      ],
      [
        "在",
        -9.887657165527344
      ],
      [
        "ig",
        -9.888174057006836
      ],
      [
        "▁ewe",
        -9.889520645141602
      ],
      [
        "မ",
        -9.889759063720703
      ],
      [
        "ना",
        -9.889986038208008
      ],
      [
        "▁mwa",
        -9.891318321228027
      ],
      [
        "▁that",
        -9.891349792480469
      ],
      [
        "sia",
        -9.891401290893556
      ],
      [
        "▁Man",
        -9.893693923950195
      ],
      [
        "▁kia",
        -9.89390468597412
      ],
      [
        "▁Juan",
        -9.89480209350586
      ],
      [
        "ila",
        -9.8952054977417
      ],
      [
        "▁os",
        -9.895319938659668
      ],
      [
        "ो",
        -9.895867347717283
      ],
      [
        "一",
        -9.89780044555664
      ],
      [
        "lah",
        -9.898438453674316
      ],
      [
        "ز",
        -9.898977279663086
      ],
      [
        "▁mun",
        -9.899446487426758
      ],
      [
        "▁این",
        -9.90099048614502
      ],
      [
        "▁war",
        -9.90162181854248
      ],
      [
        "▁sar",
        -9.90308952331543
      ],
      [
        "ст",
        -9.903216361999512
      ],
      [
        "то",
        -9.90402889251709
      ],
      [
        "pan",
        -9.904173851013184
      ],
      [
        "ano",
        -9.904582023620604
      ],
      [
        "▁eh",
        -9.905473709106444
      ],
      [
        "nia",
        -9.905594825744627
      ],
      [
        "tti",
        -9.90591812133789
      ],
      [
        "▁my",
        -9.906329154968262
      ],
      [
        "▁kev",
        -9.907794952392578
      ],
      [
        "▁Ang",
        -9.90876579284668
      ],
      [
        "▁tra",
        -9.909029006958008
      ],
      [
        "▁ako",
        -9.909205436706545
      ],
      [
        "▁aga",
        -9.911016464233398
      ],
      [
        "▁Isa",
        -9.911693572998049
      ],
      [
        "▁mon",
        -9.912344932556152
      ],
      [
        "▁æ",
        -9.912845611572266
      ],
      [
        "▁دا",
        -9.91352653503418
      ],
      [
        "ې",
        -9.913763999938965
      ],
      [
        "▁manga",
        -9.913880348205566
      ],
      [
        "ll",
        -9.91388702392578
      ],
      [
        "▁dei",
        -9.91392707824707
      ],
      [
        "▁ⴷ",
        -9.91419506072998
      ],
      [
        "▁wei",
        -9.914382934570312
      ],
      [
        "▁sem",
        -9.914583206176758
      ],
      [
        "▁ngaol",
        -9.914846420288086
      ],
      [
        "▁tɨ",
        -9.91523265838623
      ],
      [
        "ب",
        -9.915690422058104
      ],
      [
        "ira",
        -9.91570281982422
      ],
      [
        "dar",
        -9.915706634521484
      ],
      [
        "gh",
        -9.917149543762209
      ],
      [
        "nge",
        -9.91725730895996
      ],
      [
        "▁ein",
        -9.917536735534668
      ],
      [
        "▁sira",
        -9.917988777160645
      ],
      [
        "š",
        -9.91802978515625
      ],
      [
        "▁mama",
        -9.920466423034668
      ],
      [
        "hon",
        -9.921375274658203
      ],
      [
        "anga",
        -9.922452926635742
      ],
      [
        "ية",
        -9.922737121582031
      ],
      [
        "ц",
        -9.924992561340332
      ],
      [
        "▁ono",
        -9.925591468811035
      ],
      [
        "ndu",
        -9.9256591796875
      ],
      [
        "▁ا",
        -9.92581558227539
      ],
      [
        "▁sara",
        -9.92612361907959
      ],
      [
        "W",
        -9.926674842834473
      ],
      [
        "▁untuk",
        -9.92668342590332
      ],
      [
        "▁б",
        -9.926745414733888
      ],
      [
        "▁jin",
        -9.926936149597168
      ],
      [
        "▁”",
        -9.92695140838623
      ],
      [
        "bil",
        -9.927082061767578
      ],
      [
        "▁gen",
        -9.927688598632812
      ],
      [
        "▁kara",
        -9.92797565460205
      ],
      [
        "▁khi",
        -9.928064346313477
      ],
      [
        "▁kaba",
        -9.92816925048828
      ],
      [
        "ай",
        -9.93008804321289
      ],
      [
        "SD",
        -9.93032455444336
      ],
      [
        "▁waa",
        -9.930462837219238
      ],
      [
        "ک",
        -9.932310104370115
      ],
      [
        "ত",
        -9.933746337890623
      ],
      [
        "▁ing",
        -9.934093475341797
      ],
      [
        "▁com",
        -9.934126853942873
      ],
      [
        "ի",
        -9.934831619262695
      ],
      [
        "▁nem",
        -9.93556308746338
      ],
      [
        "▁Du",
        -9.93608856201172
      ],
      [
        "▁sum",
        -9.93648624420166
      ],
      [
        "ş",
        -9.937124252319336
      ],
      [
        "\",",
        -9.937467575073242
      ],
      [
        "mbo",
        -9.937664031982422
      ],
      [
        "ry",
        -9.9378662109375
      ],
      [
        "▁آسیاب",
        -9.937893867492676
      ],
      [
        "ati",
        -9.9385986328125
      ],
      [
        "½",
        -9.938763618469238
      ],
      [
        "▁kag",
        -9.94218635559082
      ],
      [
        "bar",
        -9.94265842437744
      ],
      [
        "dia",
        -9.943037033081056
      ],
      [
        "ber",
        -9.943951606750488
      ],
      [
        "▁ته",
        -9.944170951843262
      ],
      [
        "▁å",
        -9.945002555847168
      ],
      [
        "▁nke",
        -9.945422172546388
      ],
      [
        "▁tlen",
        -9.945521354675291
      ],
      [
        "▁mit",
        -9.94559383392334
      ],
      [
        "▁douk",
        -9.945892333984377
      ],
      [
        "▁کو",
        -9.946517944335938
      ],
      [
        "▁mau",
        -9.94709587097168
      ],
      [
        "ena",
        -9.947330474853516
      ],
      [
        "ach",
        -9.947741508483888
      ],
      [
        "С",
        -9.947946548461914
      ],
      [
        "DC",
        -9.948460578918455
      ],
      [
        "▁sur",
        -9.949073791503906
      ],
      [
        "▁Nga",
        -9.94958209991455
      ],
      [
        "imi",
        -9.95081901550293
      ],
      [
        "taj",
        -9.951313018798828
      ],
      [
        "▁Г",
        -9.95253086090088
      ],
      [
        "ри",
        -9.952857971191406
      ],
      [
        "yn",
        -9.95448398590088
      ],
      [
        "▁tü",
        -9.95498275756836
      ],
      [
        "▁zhi",
        -9.955035209655762
      ],
      [
        "▁је",
        -9.955385208129885
      ],
      [
        "း",
        -9.955570220947266
      ],
      [
        "ky",
        -9.956067085266112
      ],
      [
        "una",
        -9.956393241882324
      ],
      [
        "▁ira",
        -9.957027435302734
      ],
      [
        "▁ਹੈ",
        -9.95708465576172
      ],
      [
        "▁Va",
        -9.95759105682373
      ],
      [
        "▁Do",
        -9.957696914672852
      ],
      [
        "▁kat",
        -9.959017753601074
      ],
      [
        "▁ring",
        -9.959157943725586
      ],
      [
        "▁wen",
        -9.960801124572754
      ],
      [
        "ax",
        -9.961175918579102
      ],
      [
        "aka",
        -9.961906433105469
      ],
      [
        "▁Lu",
        -9.962163925170898
      ],
      [
        "▁ہے",
        -9.963306427001951
      ],
      [
        "▁Per",
        -9.965778350830078
      ],
      [
        "gen",
        -9.96586799621582
      ],
      [
        "tur",
        -9.966224670410156
      ],
      [
        "▁ot",
        -9.967153549194336
      ],
      [
        "▁ex",
        -9.967862129211426
      ],
      [
        "▁。",
        -9.968120574951172
      ],
      [
        "▁हे",
        -9.968232154846191
      ],
      [
        "に",
        -9.968645095825195
      ],
      [
        "▁برای",
        -9.969160079956056
      ],
      [
        "▁+",
        -9.969478607177734
      ],
      [
        "▁П",
        -9.969618797302246
      ],
      [
        "▁Pi",
        -9.970491409301758
      ],
      [
        "©",
        -9.971392631530762
      ],
      [
        "▁ما",
        -9.97166919708252
      ],
      [
        "　",
        -9.97246551513672
      ],
      [
        "▁बा",
        -9.972500801086426
      ],
      [
        "X",
        -9.972947120666504
      ],
      [
        "BS",
        -9.97327709197998
      ],
      [
        "qui",
        -9.974989891052246
      ],
      [
        "▁ili",
        -9.975390434265137
      ],
      [
        "▁anga",
        -9.975436210632324
      ],
      [
        "▁о",
        -9.975582122802734
      ],
      [
        "▁Mar",
        -9.975777626037598
      ],
      [
        "を",
        -9.976360321044922
      ],
      [
        "€",
        -9.976411819458008
      ],
      [
        "ᑦ",
        -9.97865104675293
      ],
      [
        "▁को",
        -9.978928565979004
      ],
      [
        "▁व",
        -9.979069709777832
      ],
      [
        "▁RTI",
        -9.980438232421877
      ],
      [
        "▁soo",
        -9.982491493225098
      ],
      [
        "¸",
        -9.983702659606934
      ],
      [
        "▁ths",
        -9.983712196350098
      ],
      [
        "ун",
        -9.983724594116213
      ],
      [
        "▁Il",
        -9.983805656433104
      ],
      [
        "▁аз",
        -9.984045028686523
      ],
      [
        "▁bidi",
        -9.984230041503906
      ],
      [
        "kwa",
        -9.98477554321289
      ],
      [
        "▁է",
        -9.985166549682615
      ],
      [
        "▁from",
        -9.986287117004396
      ],
      [
        "wn",
        -9.98671817779541
      ],
      [
        "▁على",
        -9.989118576049805
      ],
      [
        "isa",
        -9.989154815673828
      ],
      [
        "▁Un",
        -9.989416122436523
      ],
      [
        "bal",
        -9.990560531616213
      ],
      [
        "tor",
        -9.99063777923584
      ],
      [
        "တ",
        -9.991792678833008
      ],
      [
        "▁چې",
        -9.99181079864502
      ],
      [
        "▁bay",
        -9.992149353027344
      ],
      [
        "▁می",
        -9.992462158203123
      ],
      [
        "mm",
        -9.994446754455566
      ],
      [
        "▁деп",
        -9.995867729187012
      ],
      [
        "▁Jo",
        -9.996150970458984
      ],
      [
        "▁nag",
        -9.997888565063477
      ],
      [
        "LC",
        -9.999147415161133
      ],
      [
        "▁r",
        -9.99928855895996
      ],
      [
        "ে",
        -9.999343872070312
      ],
      [
        "▁bang",
        -9.999530792236328
      ],
      [
        "▁mpe",
        -9.999641418457031
      ],
      [
        "▁yen",
        -10.000055313110352
      ],
      [
        "▁Ge",
        -10.003111839294434
      ],
      [
        "ю",
        -10.003764152526855
      ],
      [
        "▁Х",
        -10.00395393371582
      ],
      [
        "了",
        -10.004541397094728
      ],
      [
        "ам",
        -10.004575729370115
      ],
      [
        "▁nopa",
        -10.005511283874512
      ],
      [
        "manda",
        -10.005512237548828
      ],
      [
        "▁lang",
        -10.005671501159668
      ],
      [
        "▁eng",
        -10.006271362304688
      ],
      [
        "¡",
        -10.00657081604004
      ],
      [
        "▁Ju",
        -10.006820678710938
      ],
      [
        "tra",
        -10.007637977600098
      ],
      [
        "ndi",
        -10.00906467437744
      ],
      [
        "tal",
        -10.009206771850586
      ],
      [
        "ich",
        -10.009215354919434
      ],
      [
        "▁abi",
        -10.009493827819824
      ],
      [
        "ð",
        -10.009740829467772
      ],
      [
        "ك",
        -10.010099411010742
      ],
      [
        "isi",
        -10.010527610778809
      ],
      [
        "▁Ala",
        -10.011548042297363
      ],
      [
        "▁اور",
        -10.012062072753906
      ],
      [
        "kha",
        -10.01206874847412
      ],
      [
        "ram",
        -10.012619972229004
      ],
      [
        "сы",
        -10.01304817199707
      ],
      [
        "▁maa",
        -10.013151168823242
      ],
      [
        "▁isi",
        -10.01347827911377
      ],
      [
        "▁lub",
        -10.0136137008667
      ],
      [
        "▁muna",
        -10.01439094543457
      ],
      [
        "LS",
        -10.016345024108888
      ],
      [
        "си",
        -10.016660690307615
      ],
      [
        "၊",
        -10.017105102539062
      ],
      [
        "▁ila",
        -10.01726245880127
      ],
      [
        "ने",
        -10.017324447631836
      ],
      [
        "▁bụ",
        -10.017970085144045
      ],
      [
        "org",
        -10.019079208374023
      ],
      [
        "▁hun",
        -10.019293785095217
      ],
      [
        "▁jing",
        -10.019997596740724
      ],
      [
        "&",
        -10.020236015319824
      ],
      [
        "og",
        -10.021337509155272
      ],
      [
        "။",
        -10.021450996398926
      ],
      [
        "ф",
        -10.022699356079102
      ],
      [
        "پ",
        -10.022881507873535
      ],
      [
        "▁wat",
        -10.023992538452148
      ],
      [
        "ып",
        -10.024399757385254
      ],
      [
        "▁hong",
        -10.024731636047363
      ],
      [
        "র",
        -10.02484130859375
      ],
      [
        "ud",
        -10.026960372924805
      ],
      [
        "▁jan",
        -10.027061462402344
      ],
      [
        "ыр",
        -10.02811050415039
      ],
      [
        "▁mek",
        -10.028332710266112
      ],
      [
        "▁usa",
        -10.029414176940918
      ],
      [
        "▁sak",
        -10.029654502868652
      ],
      [
        "▁आउ",
        -10.030171394348145
      ],
      [
        "▁کې",
        -10.030508995056152
      ],
      [
        "ib",
        -10.030556678771973
      ],
      [
        "lin",
        -10.030922889709473
      ],
      [
        "ता",
        -10.031208038330078
      ],
      [
        "▁aki",
        -10.031521797180176
      ],
      [
        "▁ida",
        -10.03156566619873
      ],
      [
        "▁उ",
        -10.031582832336426
      ],
      [
        "▁une",
        -10.031903266906738
      ],
      [
        "ה",
        -10.032623291015623
      ],
      [
        "̀",
        -10.033268928527832
      ],
      [
        "▁mach",
        -10.033770561218262
      ],
      [
        "▁wie",
        -10.034357070922852
      ],
      [
        "▁për",
        -10.034648895263672
      ],
      [
        "Z",
        -10.035185813903809
      ],
      [
        "▁aa",
        -10.036314010620115
      ],
      [
        "▁We",
        -10.037169456481934
      ],
      [
        "▁mam",
        -10.039057731628418
      ],
      [
        "▁wai",
        -10.039776802062988
      ],
      [
        "аш",
        -10.04047679901123
      ],
      [
        "▁ن",
        -10.042102813720703
      ],
      [
        "té",
        -10.042243957519531
      ],
      [
        "▁dóó",
        -10.045604705810549
      ],
      [
        "▁sie",
        -10.04601001739502
      ],
      [
        "▁hui",
        -10.046018600463867
      ],
      [
        "▁ф",
        -10.046377182006836
      ],
      [
        "不",
        -10.046676635742188
      ],
      [
        "▁Yu",
        -10.046710014343262
      ],
      [
        "Q",
        -10.0468111038208
      ],
      [
        "▁Б",
        -10.047341346740724
      ],
      [
        "ą",
        -10.048060417175291
      ],
      [
        "usi",
        -10.048604011535645
      ],
      [
        "asi",
        -10.04945945739746
      ],
      [
        "ן",
        -10.049971580505373
      ],
      [
        "▁yon",
        -10.05070686340332
      ],
      [
        "oo",
        -10.0507230758667
      ],
      [
        "ngi",
        -10.051012992858888
      ],
      [
        "̣",
        -10.051362991333008
      ],
      [
        "▁nen",
        -10.051856994628906
      ],
      [
        "ong",
        -10.052030563354492
      ],
      [
        "ха",
        -10.052063941955566
      ],
      [
        "го",
        -10.052251815795898
      ],
      [
        "▁hari",
        -10.053427696228027
      ],
      [
        "lam",
        -10.053641319274902
      ],
      [
        "▁bak",
        -10.05489730834961
      ],
      [
        "гъа",
        -10.055108070373535
      ],
      [
        "▁ك",
        -10.055301666259766
      ],
      [
        "▁reta",
        -10.055706977844238
      ],
      [
        "▁mal",
        -10.055956840515137
      ],
      [
        "pis",
        -10.056199073791504
      ],
      [
        "▁کا",
        -10.056286811828612
      ],
      [
        "ом",
        -10.056475639343262
      ],
      [
        "▁bɔ",
        -10.05752182006836
      ],
      [
        "▁rẹ",
        -10.057791709899902
      ],
      [
        "|",
        -10.05780029296875
      ],
      [
        "zu",
        -10.057961463928224
      ],
      [
        "▁rai",
        -10.058579444885254
      ],
      [
        "▁baka",
        -10.059188842773438
      ],
      [
        "ს",
        -10.05969524383545
      ],
      [
        "▁hag",
        -10.05974292755127
      ],
      [
        "▁nda",
        -10.061643600463867
      ],
      [
        "▁Д",
        -10.061758995056152
      ],
      [
        "▁های",
        -10.061774253845217
      ],
      [
        "▁ile",
        -10.06254768371582
      ],
      [
        "nik",
        -10.063640594482422
      ],
      [
        "dir",
        -10.063690185546877
      ],
      [
        "án",
        -10.063697814941406
      ],
      [
        "▁sam",
        -10.064827919006348
      ],
      [
        "▁dit",
        -10.064828872680664
      ],
      [
        "▁masa",
        -10.064862251281738
      ],
      [
        "▁ह",
        -10.06495761871338
      ],
      [
        "▁Pedro",
        -10.065244674682615
      ],
      [
        "tes",
        -10.065464973449709
      ],
      [
        "α",
        -10.065929412841797
      ],
      [
        "▁th",
        -10.066047668457031
      ],
      [
        "▁kas",
        -10.06628131866455
      ],
      [
        "▁न",
        -10.066330909729004
      ],
      [
        "µ",
        -10.066591262817385
      ],
      [
        "nye",
        -10.06678581237793
      ],
      [
        "▁oi",
        -10.066845893859863
      ],
      [
        "ung",
        -10.066869735717772
      ],
      [
        "▁jadi",
        -10.06700611114502
      ],
      [
        "ক",
        -10.067294120788574
      ],
      [
        "▁tai",
        -10.0679349899292
      ],
      [
        "▁कर",
        -10.069100379943848
      ],
      [
        "▁vu",
        -10.069169044494627
      ],
      [
        "▁Jesucristo",
        -10.070104598999023
      ],
      [
        "ole",
        -10.07042121887207
      ],
      [
        "▁chay",
        -10.070873260498049
      ],
      [
        "▁kua",
        -10.071712493896484
      ],
      [
        "дин",
        -10.071843147277832
      ],
      [
        "▁toe",
        -10.071850776672363
      ],
      [
        "▁New",
        -10.07285213470459
      ],
      [
        "▁mbi",
        -10.07305908203125
      ],
      [
        "▁és",
        -10.074505805969238
      ],
      [
        "▁gaw",
        -10.07469654083252
      ],
      [
        "։",
        -10.076777458190918
      ],
      [
        "pen",
        -10.076824188232422
      ],
      [
        "▁ilo",
        -10.07785701751709
      ],
      [
        "▁ame",
        -10.078548431396484
      ],
      [
        "▁qi",
        -10.078807830810549
      ],
      [
        "▁ami",
        -10.08016300201416
      ],
      [
        "።",
        -10.081183433532717
      ],
      [
        "▁ete",
        -10.081378936767578
      ],
      [
        "▁Is",
        -10.081722259521484
      ],
      [
        "ola",
        -10.082128524780272
      ],
      [
        "▁anda",
        -10.082701683044434
      ],
      [
        "▁att",
        -10.08375644683838
      ],
      [
        "▁oyo",
        -10.084385871887209
      ],
      [
        "aki",
        -10.08443832397461
      ],
      [
        "上",
        -10.084649085998535
      ],
      [
        "▁tä",
        -10.084720611572266
      ],
      [
        "च",
        -10.085806846618652
      ],
      [
        "▁hana",
        -10.08585262298584
      ],
      [
        "thi",
        -10.086329460144045
      ],
      [
        "▁lalu",
        -10.086729049682615
      ],
      [
        "▁enn",
        -10.086956024169922
      ],
      [
        "▁zai",
        -10.08749008178711
      ],
      [
        "ون",
        -10.087565422058104
      ],
      [
        "▁nam",
        -10.089231491088867
      ],
      [
        "ದ",
        -10.089483261108398
      ],
      [
        "▁kā",
        -10.089645385742188
      ],
      [
        "▁saa",
        -10.0908203125
      ],
      [
        "ide",
        -10.091630935668944
      ],
      [
        "ስ",
        -10.091729164123535
      ],
      [
        "ire",
        -10.092324256896973
      ],
      [
        "eb",
        -10.09235954284668
      ],
      [
        "ው",
        -10.092872619628906
      ],
      [
        "ها",
        -10.093624114990234
      ],
      [
        "▁دی",
        -10.093917846679688
      ],
      [
        "kat",
        -10.09416675567627
      ],
      [
        "Mi",
        -10.094819068908691
      ],
      [
        "ның",
        -10.095149993896484
      ],
      [
        "эм",
        -10.095454216003418
      ],
      [
        "▁Co",
        -10.095538139343262
      ],
      [
        "▁mme",
        -10.096612930297852
      ],
      [
        "▁ي",
        -10.096837997436523
      ],
      [
        "（",
        -10.096899032592772
      ],
      [
        "▁iye",
        -10.097503662109377
      ],
      [
        "ми",
        -10.09800624847412
      ],
      [
        "▁asin",
        -10.098501205444336
      ],
      [
        "▁Ca",
        -10.09872055053711
      ],
      [
        "▁bana",
        -10.09896183013916
      ],
      [
        "▁taudia",
        -10.099020957946776
      ],
      [
        "व",
        -10.09959316253662
      ],
      [
        "▁ई",
        -10.099754333496094
      ],
      [
        "▁ter",
        -10.099973678588867
      ],
      [
        "yon",
        -10.100497245788574
      ],
      [
        "‹",
        -10.101284980773926
      ],
      [
        "лан",
        -10.10163688659668
      ],
      [
        "tt",
        -10.10247039794922
      ],
      [
        "▁sou",
        -10.102865219116213
      ],
      [
        "▁ਦੇ",
        -10.104832649230955
      ],
      [
        "▁lah",
        -10.10621452331543
      ],
      [
        "aya",
        -10.10710620880127
      ],
      [
        "▁dekenai",
        -10.10767936706543
      ],
      [
        "▁sto",
        -10.109407424926758
      ],
      [
        "kana",
        -10.109614372253418
      ],
      [
        "▁lei",
        -10.109716415405272
      ],
      [
        "▁بە",
        -10.110112190246582
      ],
      [
        "▁sun",
        -10.110198974609377
      ],
      [
        "▁iba",
        -10.110626220703123
      ],
      [
        "▁but",
        -10.110685348510742
      ],
      [
        "▁wala",
        -10.111516952514648
      ],
      [
        "aga",
        -10.111727714538574
      ],
      [
        "ù",
        -10.111736297607422
      ],
      [
        "▁yin",
        -10.112037658691406
      ],
      [
        "▁gui",
        -10.112893104553224
      ],
      [
        "▁Ch",
        -10.113157272338867
      ],
      [
        "▁faka",
        -10.11326026916504
      ],
      [
        "▁yak",
        -10.113429069519045
      ],
      [
        "។",
        -10.115056991577148
      ],
      [
        "中",
        -10.115135192871094
      ],
      [
        "▁ndo",
        -10.11557960510254
      ],
      [
        "ò",
        -10.116945266723633
      ],
      [
        "▁nti",
        -10.118452072143556
      ],
      [
        "▁ur",
        -10.121987342834473
      ],
      [
        ".”—",
        -10.122440338134766
      ],
      [
        "▁·",
        -10.122556686401367
      ],
      [
        "▁Nzambi",
        -10.123919486999512
      ],
      [
        "▁May",
        -10.124768257141112
      ],
      [
        "La",
        -10.125006675720217
      ],
      [
        "▁bhi",
        -10.125247955322266
      ],
      [
        "▁!",
        -10.125309944152832
      ],
      [
        "ब",
        -10.126143455505373
      ],
      [
        "les",
        -10.12642765045166
      ],
      [
        "̱",
        -10.1267671585083
      ],
      [
        "▁ras",
        -10.12679386138916
      ],
      [
        "▁gia",
        -10.128710746765137
      ],
      [
        "▁Hu",
        -10.12887954711914
      ],
      [
        "လၢ",
        -10.129450798034668
      ],
      [
        "kun",
        -10.129942893981934
      ],
      [
        "ӣ",
        -10.12998104095459
      ],
      [
        "▁baa",
        -10.130284309387209
      ],
      [
        "ida",
        -10.130352020263672
      ],
      [
        "ska",
        -10.130940437316896
      ],
      [
        "oni",
        -10.131640434265137
      ],
      [
        "▁sala",
        -10.131787300109863
      ],
      [
        "▁צו",
        -10.131983757019045
      ],
      [
        "ëŠ",
        -10.132877349853516
      ],
      [
        "sak",
        -10.133431434631348
      ],
      [
        "bat",
        -10.133511543273926
      ],
      [
        "kka",
        -10.134401321411133
      ],
      [
        "▁hta",
        -10.134872436523438
      ],
      [
        "BODY",
        -10.134881973266602
      ],
      [
        "▁dao",
        -10.13559627532959
      ],
      [
        "ger",
        -10.135658264160156
      ],
      [
        "፡",
        -10.135672569274902
      ],
      [
        "˜",
        -10.1361665725708
      ],
      [
        "ই",
        -10.137659072875977
      ],
      [
        "DLID",
        -10.137669563293455
      ],
      [
        "ме",
        -10.138151168823242
      ],
      [
        "는",
        -10.138930320739746
      ],
      [
        "▁size",
        -10.1400728225708
      ],
      [
        "य",
        -10.140859603881836
      ],
      [
        "▁اس",
        -10.141096115112305
      ],
      [
        "▁из",
        -10.141176223754885
      ],
      [
        "▁ayeke",
        -10.141310691833496
      ],
      [
        "ган",
        -10.142292022705078
      ],
      [
        "ق",
        -10.143467903137209
      ],
      [
        "ро",
        -10.14456558227539
      ],
      [
        "▁zhong",
        -10.144577980041504
      ],
      [
        "õ",
        -10.145896911621094
      ],
      [
        "jan",
        -10.146230697631836
      ],
      [
        "lang",
        -10.14643096923828
      ],
      [
        "用",
        -10.147971153259276
      ],
      [
        "Ne",
        -10.14818286895752
      ],
      [
        "ike",
        -10.14841365814209
      ],
      [
        "▁ham",
        -10.149088859558104
      ],
      [
        "▁Бу",
        -10.149798393249512
      ],
      [
        "¬",
        -10.150020599365234
      ],
      [
        "▁kuba",
        -10.15026569366455
      ],
      [
        "▁vae",
        -10.150386810302734
      ],
      [
        "▁yéetel",
        -10.15077018737793
      ],
      [
        "▁nú",
        -10.151771545410156
      ],
      [
        "▁Den",
        -10.152145385742188
      ],
      [
        "kai",
        -10.153691291809082
      ],
      [
        "▁mak",
        -10.153748512268066
      ],
      [
        "tas",
        -10.153790473937988
      ],
      [
        "▁bala",
        -10.154175758361816
      ],
      [
        "▁۽",
        -10.15497589111328
      ],
      [
        "rum",
        -10.1552095413208
      ],
      [
        "▁yɔ",
        -10.15628433227539
      ],
      [
        "▁waka",
        -10.156563758850098
      ],
      [
        "[",
        -10.156624794006348
      ],
      [
        "▁yog",
        -10.156672477722168
      ],
      [
        "des",
        -10.157029151916504
      ],
      [
        "▁जा",
        -10.157059669494627
      ],
      [
        "▁sane",
        -10.15818214416504
      ],
      [
        "est",
        -10.159191131591797
      ],
      [
        "Ta",
        -10.159319877624512
      ],
      [
        "ରେ",
        -10.159553527832031
      ],
      [
        "▁Yo",
        -10.15968132019043
      ],
      [
        "▁aan",
        -10.160171508789062
      ],
      [
        "▁Er",
        -10.160897254943848
      ],
      [
        "ix",
        -10.161535263061523
      ],
      [
        "▁fon",
        -10.163193702697754
      ],
      [
        "▁iri",
        -10.164066314697266
      ],
      [
        "эр",
        -10.16502571105957
      ],
      [
        "nta",
        -10.16504955291748
      ],
      [
        "▁tɔn",
        -10.16615104675293
      ],
      [
        "das",
        -10.166999816894531
      ],
      [
        "▁aya",
        -10.167325973510742
      ],
      [
        "ers",
        -10.167975425720217
      ],
      [
        "им",
        -10.168313026428224
      ],
      [
        "▁dehn",
        -10.16834831237793
      ],
      [
        "ké",
        -10.168678283691406
      ],
      [
        "▁ngi",
        -10.169261932373049
      ],
      [
        "mai",
        -10.169377326965332
      ],
      [
        "▁ton",
        -10.16938304901123
      ],
      [
        "чи",
        -10.169461250305176
      ],
      [
        "▁online",
        -10.169994354248049
      ],
      [
        "▁Vi",
        -10.171975135803224
      ],
      [
        "mak",
        -10.17250156402588
      ],
      [
        "ين",
        -10.172845840454102
      ],
      [
        "▁án",
        -10.173506736755373
      ],
      [
        "▁۾",
        -10.17353630065918
      ],
      [
        "月",
        -10.173612594604492
      ],
      [
        "▁pun",
        -10.174619674682615
      ],
      [
        "kwe",
        -10.174835205078123
      ],
      [
        "▁rü",
        -10.17483901977539
      ],
      [
        "▁dzi",
        -10.17526149749756
      ],
      [
        "van",
        -10.175649642944336
      ],
      [
        "▁caw",
        -10.175664901733398
      ],
      [
        "▁kami",
        -10.176186561584473
      ],
      [
        "num",
        -10.17685317993164
      ],
      [
        "by",
        -10.17722511291504
      ],
      [
        "tho",
        -10.177312850952148
      ],
      [
        "प",
        -10.178437232971191
      ],
      [
        "▁amu",
        -10.178929328918455
      ],
      [
        "▁ab",
        -10.179234504699709
      ],
      [
        "▁bengaluru",
        -10.179498672485352
      ],
      [
        "▁von",
        -10.179542541503906
      ],
      [
        "▁Qaalaa",
        -10.179606437683104
      ],
      [
        "▁ج",
        -10.179811477661133
      ],
      [
        "ili",
        -10.17995834350586
      ],
      [
        "лер",
        -10.180368423461914
      ],
      [
        "manta",
        -10.180734634399414
      ],
      [
        "）",
        -10.181035041809082
      ],
      [
        "▁kare",
        -10.181172370910645
      ],
      [
        "▁ان",
        -10.181246757507324
      ],
      [
        "she",
        -10.18127727508545
      ],
      [
        "▁ў",
        -10.18173885345459
      ],
      [
        "Me",
        -10.181897163391112
      ],
      [
        "olo",
        -10.181974411010742
      ],
      [
        "에",
        -10.183141708374023
      ],
      [
        "▁מ",
        -10.183629989624023
      ],
      [
        "▁Kristus",
        -10.18373966217041
      ],
      [
        "▁pea",
        -10.18430995941162
      ],
      [
        "▁gan",
        -10.187376976013184
      ],
      [
        "は",
        -10.187557220458984
      ],
      [
        "▁Ve",
        -10.188490867614746
      ],
      [
        "▁como",
        -10.19044303894043
      ],
      [
        "▁koe",
        -10.191672325134276
      ],
      [
        "▁say",
        -10.191848754882812
      ],
      [
        "▁dë",
        -10.192399978637695
      ],
      [
        "ⵜ",
        -10.19271469116211
      ],
      [
        "▁און",
        -10.192793846130373
      ],
      [
        "▁niya",
        -10.193978309631348
      ],
      [
        "چ",
        -10.194165229797363
      ],
      [
        "▁naka",
        -10.194387435913086
      ],
      [
        "per",
        -10.194554328918455
      ],
      [
        "▁thei",
        -10.195223808288574
      ],
      [
        "▁tok",
        -10.195772171020508
      ],
      [
        "▁Dan",
        -10.195796012878418
      ],
      [
        "▁ᎠᎴ",
        -10.19591999053955
      ],
      [
        "▁ola",
        -10.197198867797852
      ],
      [
        "aⁿ",
        -10.197463989257812
      ],
      [
        "▁Pro",
        -10.197952270507812
      ],
      [
        "gar",
        -10.19832706451416
      ],
      [
        "▁ɖe",
        -10.199227333068848
      ],
      [
        "▁tek",
        -10.199799537658691
      ],
      [
        "▁tena",
        -10.199817657470703
      ],
      [
        "▁kpa",
        -10.200362205505373
      ],
      [
        "tam",
        -10.200528144836426
      ],
      [
        "ski",
        -10.20061492919922
      ],
      [
        "▁all",
        -10.200640678405762
      ],
      [
        "▁ob",
        -10.200736045837402
      ],
      [
        "nna",
        -10.2011137008667
      ],
      [
        ",+",
        -10.201199531555176
      ],
      [
        "▁dis",
        -10.201264381408691
      ],
      [
        "ပ",
        -10.201461791992188
      ],
      [
        "▁ie",
        -10.201689720153809
      ],
      [
        "▁tapi",
        -10.202006340026855
      ],
      [
        "▁kata",
        -10.202448844909668
      ],
      [
        "▁mid",
        -10.202516555786133
      ],
      [
        "ron",
        -10.202557563781738
      ],
      [
        "▁tana",
        -10.202569961547852
      ],
      [
        "Ba",
        -10.202715873718262
      ],
      [
        "▁oro",
        -10.202770233154297
      ],
      [
        "ва",
        -10.20291519165039
      ],
      [
        "▁Wi",
        -10.203887939453123
      ],
      [
        "▁ntawm",
        -10.203916549682615
      ],
      [
        "▁να",
        -10.203977584838867
      ],
      [
        "가",
        -10.203990936279297
      ],
      [
        "▁سے",
        -10.204133987426758
      ],
      [
        "iz",
        -10.20510482788086
      ],
      [
        "ите",
        -10.205266952514648
      ],
      [
        "▁mate",
        -10.205933570861816
      ],
      [
        "eng",
        -10.206067085266112
      ],
      [
        "ट",
        -10.206148147583008
      ],
      [
        "▁ве",
        -10.206836700439451
      ],
      [
        "nam",
        -10.207014083862305
      ],
      [
        "▁sani",
        -10.207507133483888
      ],
      [
        "▁dina",
        -10.2076416015625
      ],
      [
        "▁épi",
        -10.208542823791504
      ],
      [
        "▁kaa",
        -10.208623886108398
      ],
      [
        "▁pod",
        -10.208873748779297
      ],
      [
        "▁ɖɔ",
        -10.208898544311523
      ],
      [
        "が",
        -10.209556579589844
      ],
      [
        "▁yô",
        -10.21127986907959
      ],
      [
        "▁hua",
        -10.211496353149414
      ],
      [
        "ž",
        -10.21219539642334
      ],
      [
        "ер",
        -10.21225929260254
      ],
      [
        "▁esas",
        -10.212672233581545
      ],
      [
        "▁ɛn",
        -10.212804794311523
      ],
      [
        "А",
        -10.212944984436035
      ],
      [
        "ɑ",
        -10.214616775512695
      ],
      [
        "▁Et",
        -10.215012550354004
      ],
      [
        "▁﻿",
        -10.21514892578125
      ],
      [
        "▁nehe",
        -10.215160369873049
      ],
      [
        "yen",
        -10.21561050415039
      ],
      [
        "▁thiab",
        -10.21572971343994
      ],
      [
        "▁پ",
        -10.215938568115234
      ],
      [
        "▁lea",
        -10.216251373291016
      ],
      [
        "▁ó",
        -10.216364860534668
      ],
      [
        "ъ",
        -10.216428756713867
      ],
      [
        "▁mara",
        -10.216601371765137
      ],
      [
        "ন",
        -10.216803550720217
      ],
      [
        "tta",
        -10.217732429504396
      ],
      [
        "К",
        -10.218092918395996
      ],
      [
        "щ",
        -10.218164443969728
      ],
      [
        "alal",
        -10.21895980834961
      ],
      [
        "ը",
        -10.219202995300291
      ],
      [
        "▁kɛ̀",
        -10.21921730041504
      ],
      [
        "ကို",
        -10.219654083251951
      ],
      [
        "▁Tuhan",
        -10.220115661621094
      ],
      [
        "tos",
        -10.220484733581545
      ],
      [
        "зы",
        -10.22226619720459
      ],
      [
        "ey",
        -10.223852157592772
      ],
      [
        "▁ika",
        -10.224124908447266
      ],
      [
        "ف",
        -10.224199295043944
      ],
      [
        "jen",
        -10.224987983703612
      ],
      [
        "хэм",
        -10.225117683410645
      ],
      [
        "¹",
        -10.22525405883789
      ],
      [
        "▁pat",
        -10.225485801696776
      ],
      [
        "日",
        -10.226099967956545
      ],
      [
        "ika",
        -10.22614288330078
      ],
      [
        "▁ahn",
        -10.226223945617676
      ],
      [
        "ა",
        -10.227553367614746
      ],
      [
        "▁פון",
        -10.227842330932615
      ],
      [
        "▁mah",
        -10.228911399841309
      ],
      [
        "▁mwet",
        -10.229756355285645
      ],
      [
        "▁Dia",
        -10.230112075805664
      ],
      [
        "эу",
        -10.231359481811523
      ],
      [
        "▁có",
        -10.23315715789795
      ],
      [
        "ға",
        -10.233283042907717
      ],
      [
        "nji",
        -10.23369598388672
      ],
      [
        "taa",
        -10.233783721923828
      ],
      [
        "出",
        -10.234002113342283
      ],
      [
        "▁við",
        -10.234150886535645
      ],
      [
        "▁του",
        -10.234569549560549
      ],
      [
        "▁kina",
        -10.234761238098145
      ],
      [
        "▁wey",
        -10.23498821258545
      ],
      [
        "▁net",
        -10.23542022705078
      ],
      [
        "▁shu",
        -10.235917091369627
      ],
      [
        "qu",
        -10.236187934875488
      ],
      [
        "▁^",
        -10.236708641052246
      ],
      [
        "ex",
        -10.236815452575684
      ],
      [
        "▁agu",
        -10.23684024810791
      ],
      [
        "▁Kan",
        -10.237236976623535
      ],
      [
        "▁бо",
        -10.237421989440918
      ],
      [
        "▁lava",
        -10.23832893371582
      ],
      [
        "▁hain",
        -10.238773345947266
      ],
      [
        "・",
        -10.238798141479492
      ],
      [
        "ий",
        -10.239021301269531
      ],
      [
        "ete",
        -10.23964023590088
      ],
      [
        "ner",
        -10.240984916687012
      ],
      [
        "ку",
        -10.241277694702148
      ],
      [
        "▁Pu",
        -10.24133014678955
      ],
      [
        "▁On",
        -10.241990089416504
      ],
      [
        "▁kini",
        -10.24209976196289
      ],
      [
        "▁este",
        -10.242491722106934
      ],
      [
        "▁jong",
        -10.24289894104004
      ],
      [
        "▁जे",
        -10.244994163513184
      ],
      [
        "▁tino",
        -10.245034217834473
      ],
      [
        "ñe",
        -10.24542236328125
      ],
      [
        "Ha",
        -10.245539665222168
      ],
      [
        "▁muri",
        -10.246174812316896
      ],
      [
        "nie",
        -10.246521949768066
      ],
      [
        "▁basa",
        -10.24697208404541
      ],
      [
        "▁xo",
        -10.24702262878418
      ],
      [
        "के",
        -10.247651100158691
      ],
      [
        "par",
        -10.247899055480955
      ],
      [
        "ң",
        -10.24842643737793
      ],
      [
        "▁mala",
        -10.248507499694824
      ],
      [
        "▁dos",
        -10.2488374710083
      ],
      [
        "▁mew",
        -10.248839378356934
      ],
      [
        "▁aye",
        -10.249312400817873
      ],
      [
        "ә",
        -10.249741554260254
      ],
      [
        "▁tel",
        -10.24984359741211
      ],
      [
        "▁کي",
        -10.249869346618652
      ],
      [
        "▁jar",
        -10.251136779785156
      ],
      [
        "тар",
        -10.252032279968262
      ],
      [
        "▁dar",
        -10.25253677368164
      ],
      [
        "▁nos",
        -10.253002166748049
      ],
      [
        "▁weh",
        -10.25303840637207
      ],
      [
        "▁guo",
        -10.254592895507812
      ],
      [
        "▁Abraham",
        -10.254599571228027
      ],
      [
        "ج",
        -10.25487995147705
      ],
      [
        "kɛ",
        -10.254901885986328
      ],
      [
        "▁च",
        -10.25539207458496
      ],
      [
        "ngo",
        -10.255776405334473
      ],
      [
        "؟",
        -10.255821228027344
      ],
      [
        "лары",
        -10.255963325500488
      ],
      [
        "▁ⴳ",
        -10.256103515625
      ],
      [
        "ак",
        -10.256839752197266
      ],
      [
        "▁sim",
        -10.25731372833252
      ],
      [
        "▁ма",
        -10.257560729980469
      ],
      [
        "▁în",
        -10.257829666137695
      ],
      [
        "wana",
        -10.25786304473877
      ],
      [
        "▁pli",
        -10.258501052856444
      ],
      [
        "▁papa",
        -10.258830070495604
      ],
      [
        "ré",
        -10.259255409240724
      ],
      [
        "▁ahi",
        -10.259523391723633
      ],
      [
        "▁су",
        -10.259571075439451
      ],
      [
        "▁hal",
        -10.259644508361816
      ],
      [
        "▁मे",
        -10.259774208068848
      ],
      [
        "▁kasi",
        -10.259821891784668
      ],
      [
        "▁तो",
        -10.259821891784668
      ],
      [
        "▁maj",
        -10.260396003723145
      ],
      [
        "ം",
        -10.261448860168455
      ],
      [
        "dhi",
        -10.261653900146484
      ],
      [
        "Ni",
        -10.261682510375977
      ],
      [
        "▁thn",
        -10.261916160583496
      ],
      [
        "waa",
        -10.26231575012207
      ],
      [
        "ling",
        -10.262410163879396
      ],
      [
        "▁то",
        -10.262724876403809
      ],
      [
        "wal",
        -10.265003204345703
      ],
      [
        "▁noho",
        -10.26511287689209
      ],
      [
        "▁ano",
        -10.265113830566406
      ],
      [
        "mat",
        -10.265436172485352
      ],
      [
        "▁mele",
        -10.266273498535156
      ],
      [
        "▁kwi",
        -10.266631126403809
      ],
      [
        "▁र",
        -10.26686954498291
      ],
      [
        "▁το",
        -10.267149925231934
      ],
      [
        "▁Ana",
        -10.267597198486328
      ],
      [
        "▁swi",
        -10.26820945739746
      ],
      [
        "‚",
        -10.26837921142578
      ],
      [
        "din",
        -10.27062702178955
      ],
      [
        "▁Aku",
        -10.272045135498049
      ],
      [
        "ná",
        -10.27349090576172
      ],
      [
        "ە",
        -10.27416706085205
      ],
      [
        "▁ای",
        -10.275348663330078
      ],
      [
        "▁بر",
        -10.275357246398926
      ],
      [
        "▁На",
        -10.27568817138672
      ],
      [
        "到",
        -10.275912284851074
      ],
      [
        "ado",
        -10.27793788909912
      ],
      [
        "▁ל",
        -10.278986930847168
      ],
      [
        "▁ኣ",
        -10.279241561889648
      ],
      [
        "▁hna",
        -10.279245376586914
      ],
      [
        "▁vil",
        -10.279458045959473
      ],
      [
        "▁ला",
        -10.279930114746094
      ],
      [
        "can",
        -10.280024528503418
      ],
      [
        "▁she",
        -10.280143737792969
      ],
      [
        "】",
        -10.280767440795898
      ],
      [
        "▁छ",
        -10.28110694885254
      ],
      [
        "री",
        -10.28176975250244
      ],
      [
        "▁Ani",
        -10.283343315124512
      ],
      [
        "lai",
        -10.28380012512207
      ],
      [
        "▁kal",
        -10.284152030944824
      ],
      [
        "Ku",
        -10.28506088256836
      ],
      [
        "ス",
        -10.285120010375977
      ],
      [
        "▁له",
        -10.285405158996582
      ],
      [
        "ден",
        -10.286651611328123
      ],
      [
        "don",
        -10.28667449951172
      ],
      [
        "ven",
        -10.286993026733398
      ],
      [
        "▁tre",
        -10.28709602355957
      ],
      [
        "▁ⵉ",
        -10.287171363830566
      ],
      [
        "ɣ",
        -10.287554740905762
      ],
      [
        "▁ኣብ",
        -10.287835121154783
      ],
      [
        "xe",
        -10.287872314453123
      ],
      [
        "res",
        -10.28824234008789
      ],
      [
        "▁што",
        -10.288729667663574
      ],
      [
        "mana",
        -10.289000511169434
      ],
      [
        "▁vy",
        -10.289217948913574
      ],
      [
        "▁bee",
        -10.289237022399902
      ],
      [
        "▁ihe",
        -10.289414405822754
      ],
      [
        "▁fin",
        -10.28943920135498
      ],
      [
        "lé",
        -10.289541244506836
      ],
      [
        "▁fè",
        -10.289776802062988
      ],
      [
        "ረ",
        -10.2899751663208
      ],
      [
        "▁dir",
        -10.290082931518556
      ],
      [
        "nte",
        -10.290204048156738
      ],
      [
        "▁ipan",
        -10.290770530700684
      ],
      [
        "dos",
        -10.291152000427246
      ],
      [
        "és",
        -10.291581153869627
      ],
      [
        "▁Ama",
        -10.29172134399414
      ],
      [
        "इ",
        -10.291864395141602
      ],
      [
        "▁wani",
        -10.2920560836792
      ],
      [
        "▁yé",
        -10.294022560119627
      ],
      [
        "▁sei",
        -10.29413890838623
      ],
      [
        "дар",
        -10.29505443572998
      ],
      [
        "▁video",
        -10.295402526855469
      ],
      [
        "বা",
        -10.296478271484377
      ],
      [
        "ке",
        -10.296600341796877
      ],
      [
        "^",
        -10.296799659729004
      ],
      [
        "▁इ",
        -10.297167778015137
      ],
      [
        "ল",
        -10.297236442565918
      ],
      [
        "ting",
        -10.297840118408203
      ],
      [
        "ⵏ",
        -10.297944068908691
      ],
      [
        "▁soni",
        -10.298086166381836
      ],
      [
        "▁अछि",
        -10.29827117919922
      ],
      [
        "up",
        -10.299934387207031
      ],
      [
        "av",
        -10.300077438354492
      ],
      [
        "эн",
        -10.30034065246582
      ],
      [
        "▁over",
        -10.30047607421875
      ],
      [
        "#",
        -10.30166244506836
      ],
      [
        "▁бер",
        -10.301680564880373
      ],
      [
        "▁mil",
        -10.302836418151855
      ],
      [
        "ο",
        -10.302865028381348
      ],
      [
        "▁chan",
        -10.303342819213867
      ],
      [
        "▁pin",
        -10.304122924804688
      ],
      [
        "मे",
        -10.30470848083496
      ],
      [
        "net",
        -10.305026054382324
      ],
      [
        "nne",
        -10.305076599121094
      ],
      [
        "▁mé",
        -10.305150985717772
      ],
      [
        "ах",
        -10.305296897888184
      ],
      [
        "▁not",
        -10.305354118347168
      ],
      [
        "▁mua",
        -10.30697250366211
      ],
      [
        "тан",
        -10.30856227874756
      ],
      [
        "лик",
        -10.308636665344238
      ],
      [
        "▁ⵙ",
        -10.308990478515623
      ],
      [
        "let",
        -10.309043884277344
      ],
      [
        "▁sta",
        -10.309056282043455
      ],
      [
        "ድ",
        -10.309239387512209
      ],
      [
        "рэ",
        -10.310049057006836
      ],
      [
        "dor",
        -10.310192108154297
      ],
      [
        "⁠",
        -10.310486793518066
      ],
      [
        "Te",
        -10.310751914978027
      ],
      [
        "▁adi",
        -10.31093406677246
      ],
      [
        "lak",
        -10.311260223388672
      ],
      [
        "ад",
        -10.312192916870115
      ],
      [
        "û",
        -10.312471389770508
      ],
      [
        "▁pal",
        -10.312914848327637
      ],
      [
        "‵",
        -10.312957763671877
      ],
      [
        "▁January",
        -10.313431739807127
      ],
      [
        "ыс",
        -10.313493728637695
      ],
      [
        "▁mang",
        -10.313591957092283
      ],
      [
        "と",
        -10.313620567321776
      ],
      [
        "▁ف",
        -10.314157485961914
      ],
      [
        "▁Ng",
        -10.315780639648438
      ],
      [
        "▁və",
        -10.315834045410156
      ],
      [
        "গী",
        -10.315937995910645
      ],
      [
        "eni",
        -10.316060066223145
      ],
      [
        "ớp",
        -10.318239212036133
      ],
      [
        "▁bwe",
        -10.31853199005127
      ],
      [
        "▁Ji",
        -10.318968772888184
      ],
      [
        "се",
        -10.319117546081545
      ],
      [
        "से",
        -10.319171905517578
      ],
      [
        ">",
        -10.319597244262695
      ],
      [
        "▁nama",
        -10.31967544555664
      ],
      [
        "ore",
        -10.319880485534668
      ],
      [
        "▁ک",
        -10.320361137390137
      ],
      [
        "▁Wo",
        -10.32055377960205
      ],
      [
        "▁tsy",
        -10.320952415466309
      ],
      [
        "¼",
        -10.322003364562988
      ],
      [
        "▁प",
        -10.32201099395752
      ],
      [
        "▁ass",
        -10.322349548339844
      ],
      [
        "ilo",
        -10.32240390777588
      ],
      [
        "за",
        -10.322603225708008
      ],
      [
        "▁das",
        -10.323244094848633
      ],
      [
        "▁አ",
        -10.324131965637209
      ],
      [
        "sk",
        -10.324508666992188
      ],
      [
        "▁Mawu",
        -10.325242042541504
      ],
      [
        "▁azo",
        -10.325260162353516
      ],
      [
        "▁qo",
        -10.325682640075684
      ],
      [
        "nom",
        -10.325782775878906
      ],
      [
        "ē",
        -10.326332092285156
      ],
      [
        "ate",
        -10.326738357543944
      ],
      [
        "▁inn",
        -10.32683277130127
      ],
      [
        "uin",
        -10.32744598388672
      ],
      [
        "asa",
        -10.32959270477295
      ],
      [
        "▁تا",
        -10.330150604248049
      ],
      [
        "ˍ",
        -10.330177307128906
      ],
      [
        "ज",
        -10.330365180969238
      ],
      [
        "ks",
        -10.33072566986084
      ],
      [
        "▁moun",
        -10.331765174865724
      ],
      [
        "▁sareng",
        -10.332947731018066
      ],
      [
        "▁yeke",
        -10.332996368408203
      ],
      [
        "▁ket",
        -10.333086967468262
      ],
      [
        "ގެ",
        -10.333431243896484
      ],
      [
        "ker",
        -10.33428955078125
      ],
      [
        "▁uye",
        -10.334349632263184
      ],
      [
        "▁ин",
        -10.334396362304688
      ],
      [
        "သ",
        -10.335038185119627
      ],
      [
        "▁па",
        -10.335128784179688
      ],
      [
        "▁oti",
        -10.335776329040527
      ],
      [
        "kom",
        -10.33599853515625
      ],
      [
        "▁familia",
        -10.336577415466309
      ],
      [
        "▁menge",
        -10.337787628173828
      ],
      [
        "▁kot",
        -10.337888717651367
      ],
      [
        "▁या",
        -10.3384428024292
      ],
      [
        "▁Tama",
        -10.338530540466309
      ],
      [
        "▁Ak",
        -10.33948802947998
      ],
      [
        "▁sana",
        -10.339799880981444
      ],
      [
        "▁uz",
        -10.340218544006348
      ],
      [
        "▁bun",
        -10.340639114379885
      ],
      [
        "▁tauna",
        -10.34064769744873
      ],
      [
        "mos",
        -10.34205150604248
      ],
      [
        "▁edi",
        -10.34243869781494
      ],
      [
        "ана",
        -10.342793464660645
      ],
      [
        "uri",
        -10.34302806854248
      ],
      [
        "▁ɖò",
        -10.34304141998291
      ],
      [
        "▁אַ",
        -10.343082427978516
      ],
      [
        "maa",
        -10.343270301818848
      ],
      [
        "sy",
        -10.343334197998049
      ],
      [
        "▁bas",
        -10.34357452392578
      ],
      [
        "ip",
        -10.343849182128906
      ],
      [
        "▁musu",
        -10.343948364257812
      ],
      [
        "▁Roma",
        -10.344054222106934
      ],
      [
        "▁си",
        -10.344233512878418
      ],
      [
        "rang",
        -10.344773292541504
      ],
      [
        "▁ज",
        -10.345596313476562
      ],
      [
        "▁мен",
        -10.345641136169434
      ],
      [
        "ба",
        -10.346025466918944
      ],
      [
        "▁ẹ",
        -10.34669017791748
      ],
      [
        "▁tout",
        -10.346800804138184
      ],
      [
        "▁Ali",
        -10.34690761566162
      ],
      [
        "anna",
        -10.347670555114746
      ],
      [
        "▁tz",
        -10.348182678222656
      ],
      [
        "ria",
        -10.348965644836426
      ],
      [
        "nis",
        -10.350156784057615
      ],
      [
        "▁Ọ",
        -10.35020351409912
      ],
      [
        "▁pia",
        -10.350400924682615
      ],
      [
        "▁pole",
        -10.350933074951172
      ],
      [
        "▁fana",
        -10.351513862609863
      ],
      [
        "▁uu",
        -10.35166835784912
      ],
      [
        "▁yoo",
        -10.352679252624512
      ],
      [
        "▁kaw",
        -10.353076934814451
      ],
      [
        "▁vei",
        -10.353446006774902
      ],
      [
        "▁ŋu",
        -10.354146003723145
      ],
      [
        "oc",
        -10.354290008544922
      ],
      [
        "ፍ",
        -10.354388236999512
      ],
      [
        "▁doko",
        -10.354775428771973
      ],
      [
        "ында",
        -10.35483741760254
      ],
      [
        "▁ар",
        -10.3554048538208
      ],
      [
        "▁kada",
        -10.356379508972168
      ],
      [
        "ň",
        -10.356732368469238
      ],
      [
        "ní",
        -10.356740951538086
      ],
      [
        "gun",
        -10.356922149658203
      ],
      [
        "ට",
        -10.357054710388184
      ],
      [
        "ген",
        -10.357250213623049
      ],
      [
        "Ð",
        -10.357571601867676
      ],
      [
        "sar",
        -10.358699798583984
      ],
      [
        "ser",
        -10.359237670898438
      ],
      [
        "▁ok",
        -10.359370231628418
      ],
      [
        "▁му",
        -10.359554290771484
      ],
      [
        "•˜",
        -10.3601713180542
      ],
      [
        "ista",
        -10.360356330871582
      ],
      [
        "▁mwen",
        -10.36037254333496
      ],
      [
        "▁kap",
        -10.361044883728027
      ],
      [
        "▁post",
        -10.361676216125488
      ],
      [
        "▁olo",
        -10.361774444580078
      ],
      [
        "▁mini",
        -10.361909866333008
      ],
      [
        "▁fir",
        -10.362037658691406
      ],
      [
        "和",
        -10.362048149108888
      ],
      [
        "▁መ",
        -10.362098693847656
      ],
      [
        "▁Quechua",
        -10.363070487976074
      ],
      [
        "ym",
        -10.363184928894045
      ],
      [
        "▁تو",
        -10.363386154174805
      ],
      [
        "▁manda",
        -10.363839149475098
      ],
      [
        "▁nanga",
        -10.365522384643556
      ],
      [
        "▁jam",
        -10.365889549255373
      ],
      [
        "▁Ол",
        -10.365984916687012
      ],
      [
        "▁enda",
        -10.36607265472412
      ],
      [
        "▁दु",
        -10.366089820861816
      ],
      [
        "▁آهي",
        -10.366466522216797
      ],
      [
        "▁pahn",
        -10.366540908813477
      ],
      [
        "pai",
        -10.367213249206545
      ],
      [
        "▁Gi",
        -10.367290496826172
      ],
      [
        "▁come",
        -10.36841869354248
      ],
      [
        "▁Maria",
        -10.370356559753418
      ],
      [
        "ami",
        -10.37079620361328
      ],
      [
        "▁और",
        -10.372808456420898
      ],
      [
        "ô",
        -10.373990058898926
      ],
      [
        "▁akɛ",
        -10.37485408782959
      ],
      [
        "▁nana",
        -10.374899864196776
      ],
      [
        "ብ",
        -10.375470161437988
      ],
      [
        "▁м",
        -10.37580680847168
      ],
      [
        "▁pawl",
        -10.375904083251951
      ],
      [
        "▁khat",
        -10.37679958343506
      ],
      [
        "▁kitchen",
        -10.376970291137695
      ],
      [
        "▁yin̈",
        -10.3781099319458
      ],
      [
        "▁mono",
        -10.37862491607666
      ],
      [
        "rik",
        -10.37885570526123
      ],
      [
        "mbu",
        -10.378902435302734
      ],
      [
        "▁tot",
        -10.379267692565918
      ],
      [
        "▁ਨੂੰ",
        -10.37979507446289
      ],
      [
        "生",
        -10.379949569702148
      ],
      [
        "▁vai",
        -10.38002109527588
      ],
      [
        "ас",
        -10.380101203918455
      ],
      [
        "ル",
        -10.380207061767578
      ],
      [
        "▁دي",
        -10.380304336547852
      ],
      [
        "▁hon",
        -10.380454063415527
      ],
      [
        "▁siya",
        -10.380742073059082
      ],
      [
        "▁wahn",
        -10.380797386169434
      ],
      [
        "نا",
        -10.380810737609863
      ],
      [
        "tir",
        -10.380964279174805
      ],
      [
        "▁bat",
        -10.381312370300291
      ],
      [
        "eri",
        -10.381634712219238
      ],
      [
        "ring",
        -10.38163948059082
      ],
      [
        "▁É",
        -10.381750106811523
      ],
      [
        "▁یا",
        -10.382173538208008
      ],
      [
        "▁dang",
        -10.382491111755373
      ],
      [
        "хэр",
        -10.382495880126951
      ],
      [
        "▁pwe",
        -10.383305549621582
      ],
      [
        "▁uli",
        -10.383545875549316
      ],
      [
        "▁bei",
        -10.383657455444336
      ],
      [
        "ato",
        -10.384565353393556
      ],
      [
        "ų",
        -10.384805679321287
      ],
      [
        "▁fun",
        -10.384847640991213
      ],
      [
        "land",
        -10.385363578796388
      ],
      [
        "▁sal",
        -10.385552406311035
      ],
      [
        "▁ແລະ",
        -10.385751724243164
      ],
      [
        "▁uri",
        -10.386517524719238
      ],
      [
        "▁ऊ",
        -10.386550903320312
      ],
      [
        "地",
        -10.387468338012695
      ],
      [
        "行",
        -10.38754940032959
      ],
      [
        "Т",
        -10.387567520141602
      ],
      [
        "ent",
        -10.38784122467041
      ],
      [
        "▁karo",
        -10.388134956359863
      ],
      [
        "▁Die",
        -10.389165878295898
      ],
      [
        "▁lek",
        -10.389267921447754
      ],
      [
        "▁ase",
        -10.390570640563965
      ],
      [
        "var",
        -10.390697479248049
      ],
      [
        "를",
        -10.391075134277344
      ],
      [
        "▁vun",
        -10.391218185424805
      ],
      [
        "ß",
        -10.391549110412598
      ],
      [
        "▁thi",
        -10.391975402832031
      ],
      [
        "▁при",
        -10.392423629760742
      ],
      [
        "nyi",
        -10.392447471618652
      ],
      [
        "▁lagi",
        -10.392810821533203
      ],
      [
        "▁For",
        -10.392868995666504
      ],
      [
        "nje",
        -10.39349365234375
      ],
      [
        "▁हम",
        -10.393680572509766
      ],
      [
        "ର",
        -10.39381504058838
      ],
      [
        "▁אין",
        -10.393939018249512
      ],
      [
        "▁dha",
        -10.394207954406738
      ],
      [
        "nim",
        -10.394289016723633
      ],
      [
        "▁نه",
        -10.394634246826172
      ],
      [
        "ea",
        -10.394868850708008
      ],
      [
        "Œ",
        -10.394976615905762
      ],
      [
        "▁dó",
        -10.3956937789917
      ],
      [
        "▁nyi",
        -10.395869255065918
      ],
      [
        "▁کہ",
        -10.39591121673584
      ],
      [
        "ים",
        -10.39655590057373
      ],
      [
        "▁moo",
        -10.39686679840088
      ],
      [
        "य्",
        -10.397412300109863
      ],
      [
        "ula",
        -10.397537231445312
      ],
      [
        "yin",
        -10.39830207824707
      ],
      [
        "ī",
        -10.398565292358398
      ],
      [
        "▁yet",
        -10.398831367492676
      ],
      [
        "▁ब",
        -10.39899730682373
      ],
      [
        "az",
        -10.399232864379885
      ],
      [
        "▁chic",
        -10.399259567260742
      ],
      [
        "▁chuan",
        -10.399640083312988
      ],
      [
        "ris",
        -10.399737358093262
      ],
      [
        "kam",
        -10.399843215942385
      ],
      [
        "▁mee",
        -10.400790214538574
      ],
      [
        "mal",
        -10.40092945098877
      ],
      [
        "atu",
        -10.400958061218262
      ],
      [
        "ding",
        -10.400970458984377
      ],
      [
        "▁neq",
        -10.402010917663574
      ],
      [
        "las",
        -10.402175903320312
      ],
      [
        "▁raha",
        -10.40282917022705
      ],
      [
        "▁esis",
        -10.403042793273926
      ],
      [
        "▁ਦੀ",
        -10.403048515319824
      ],
      [
        "▁kama",
        -10.403630256652832
      ],
      [
        "od",
        -10.40375518798828
      ],
      [
        "▁pra",
        -10.40392780303955
      ],
      [
        "tsa",
        -10.403945922851562
      ],
      [
        "▁ulu",
        -10.404533386230469
      ],
      [
        "માં",
        -10.405308723449709
      ],
      [
        "▁bet",
        -10.405488967895508
      ],
      [
        "▁yal",
        -10.40550708770752
      ],
      [
        "ના",
        -10.406140327453612
      ],
      [
        "▁nai",
        -10.406161308288574
      ],
      [
        "ܐ",
        -10.406713485717772
      ],
      [
        "ĩ",
        -10.4070463180542
      ],
      [
        "ên",
        -10.407082557678224
      ],
      [
        "▁tá",
        -10.407183647155762
      ],
      [
        "one",
        -10.40765380859375
      ],
      [
        "▁kasa",
        -10.40776538848877
      ],
      [
        "ble",
        -10.408418655395508
      ],
      [
        "▁الم",
        -10.408921241760254
      ],
      [
        "▁là",
        -10.40896987915039
      ],
      [
        "Di",
        -10.409092903137209
      ],
      [
        "▁pé",
        -10.409406661987305
      ],
      [
        "▁kpo",
        -10.40951442718506
      ],
      [
        "▁deng",
        -10.409781455993652
      ],
      [
        "ux",
        -10.40980052947998
      ],
      [
        "▁ña",
        -10.410196304321287
      ],
      [
        "ယ",
        -10.411492347717283
      ],
      [
        "ທີ່",
        -10.41159439086914
      ],
      [
        "▁bena",
        -10.411688804626465
      ],
      [
        "tre",
        -10.412145614624023
      ],
      [
        "ise",
        -10.412189483642578
      ],
      [
        "▁ла",
        -10.41269588470459
      ],
      [
        "ster",
        -10.41280746459961
      ],
      [
        "اں",
        -10.413527488708496
      ],
      [
        "▁corner",
        -10.414097785949709
      ],
      [
        "▁کر",
        -10.414127349853516
      ],
      [
        "▁nian",
        -10.41443920135498
      ],
      [
        "ال",
        -10.414461135864258
      ],
      [
        "▁pali",
        -10.416142463684082
      ],
      [
        "▁kena",
        -10.416254997253418
      ],
      [
        "▁ап",
        -10.416791915893556
      ],
      [
        "lem",
        -10.418081283569336
      ],
      [
        "▁mani",
        -10.41879177093506
      ],
      [
        "▁hte",
        -10.419533729553224
      ],
      [
        "ˬ-",
        -10.41960906982422
      ],
      [
        "pin",
        -10.419641494750977
      ],
      [
        "ການ",
        -10.419754981994627
      ],
      [
        "lei",
        -10.41976833343506
      ],
      [
        "▁sas",
        -10.419998168945312
      ],
      [
        "▁Musa",
        -10.42001724243164
      ],
      [
        "kal",
        -10.420209884643556
      ],
      [
        "eke",
        -10.421497344970703
      ],
      [
        "ይ",
        -10.422930717468262
      ],
      [
        "ላ",
        -10.423439979553224
      ],
      [
        "▁Gu",
        -10.423611640930176
      ],
      [
        "ez",
        -10.423820495605469
      ],
      [
        "▁ndu",
        -10.42424488067627
      ],
      [
        "▁Home",
        -10.424677848815918
      ],
      [
        "▁owo",
        -10.424833297729492
      ],
      [
        "bel",
        -10.42538070678711
      ],
      [
        "▁ich",
        -10.425436973571776
      ],
      [
        "ssa",
        -10.425585746765137
      ],
      [
        "▁quin",
        -10.425891876220703
      ],
      [
        "ation",
        -10.426430702209473
      ],
      [
        "ist",
        -10.426692962646484
      ],
      [
        "ੀ",
        -10.428174018859863
      ],
      [
        "▁lok",
        -10.42874813079834
      ],
      [
        "tok",
        -10.428800582885742
      ],
      [
        "▁paa",
        -10.42934799194336
      ],
      [
        "▁tala",
        -10.429594039916992
      ],
      [
        "▁Par",
        -10.429880142211914
      ],
      [
        "alo",
        -10.43004035949707
      ],
      [
        "▁fra",
        -10.430542945861816
      ],
      [
        "▁kale",
        -10.430543899536133
      ],
      [
        "mbi",
        -10.430636405944824
      ],
      [
        "▁vaka",
        -10.430937767028809
      ],
      [
        "ጥ",
        -10.430997848510742
      ],
      [
        "▁ñ",
        -10.431645393371582
      ],
      [
        "dza",
        -10.43188762664795
      ],
      [
        "ט",
        -10.431983947753906
      ],
      [
        "ᑕ",
        -10.43218231201172
      ],
      [
        "▁hen",
        -10.432364463806152
      ],
      [
        "мы",
        -10.432515144348145
      ],
      [
        "ის",
        -10.432731628417969
      ],
      [
        "ox",
        -10.433028221130373
      ],
      [
        "ava",
        -10.43346118927002
      ],
      [
        "ланы",
        -10.433782577514648
      ],
      [
        "▁It",
        -10.434293746948242
      ],
      [
        "\">",
        -10.434621810913086
      ],
      [
        "nes",
        -10.434657096862791
      ],
      [
        "▁tso",
        -10.434768676757812
      ],
      [
        "ҳои",
        -10.435561180114746
      ],
      [
        "▁vir",
        -10.435626029968262
      ],
      [
        "လ",
        -10.435951232910156
      ],
      [
        "chic",
        -10.436705589294434
      ],
      [
        "ሉ",
        -10.43674373626709
      ],
      [
        "An",
        -10.43701457977295
      ],
      [
        "ck",
        -10.437081336975098
      ],
      [
        "▁wɛ",
        -10.437362670898438
      ],
      [
        "▁langa",
        -10.43741512298584
      ],
      [
        "▁wun",
        -10.43748950958252
      ],
      [
        "dh",
        -10.437577247619627
      ],
      [
        "¤",
        -10.438074111938477
      ],
      [
        "ẹ",
        -10.438237190246582
      ],
      [
        "▁nui",
        -10.43828582763672
      ],
      [
        "▁Ai",
        -10.439334869384766
      ],
      [
        "▁આ",
        -10.439538955688477
      ],
      [
        "ет",
        -10.439927101135254
      ],
      [
        "ै",
        -10.440107345581056
      ],
      [
        "▁של",
        -10.440232276916504
      ],
      [
        "?\"",
        -10.440402030944824
      ],
      [
        "É",
        -10.44067668914795
      ],
      [
        "▁kukwe",
        -10.44085693359375
      ],
      [
        "ि",
        -10.4409818649292
      ],
      [
        "tte",
        -10.44139575958252
      ],
      [
        "▁ebnaj",
        -10.441699981689451
      ],
      [
        "▁ш",
        -10.441716194152832
      ],
      [
        "val",
        -10.441740036010742
      ],
      [
        "ono",
        -10.44247341156006
      ],
      [
        "war",
        -10.442729949951172
      ],
      [
        "सी",
        -10.442766189575195
      ],
      [
        "▁bai",
        -10.44288730621338
      ],
      [
        "›",
        -10.443280220031738
      ],
      [
        "▁###",
        -10.443437576293944
      ],
      [
        "▁ema",
        -10.44349193572998
      ],
      [
        "kunata",
        -10.444127082824709
      ],
      [
        "Mu",
        -10.444637298583984
      ],
      [
        "وں",
        -10.44467067718506
      ],
      [
        "▁Sam",
        -10.444713592529297
      ],
      [
        "uma",
        -10.445881843566896
      ],
      [
        "▁تے",
        -10.44646453857422
      ],
      [
        "▁us",
        -10.447453498840332
      ],
      [
        "▁yab",
        -10.44756031036377
      ],
      [
        "▁ìž",
        -10.44800090789795
      ],
      [
        "▁pang",
        -10.448028564453123
      ],
      [
        "▁й",
        -10.448042869567873
      ],
      [
        "▁Chinese",
        -10.448081016540527
      ],
      [
        "▁ngaahi",
        -10.448149681091309
      ],
      [
        "apa",
        -10.44818878173828
      ],
      [
        "ते",
        -10.449180603027344
      ],
      [
        "ppe",
        -10.449264526367188
      ],
      [
        "▁plan",
        -10.44929027557373
      ],
      [
        "▁ду",
        -10.44952392578125
      ],
      [
        "ራ",
        -10.449666976928713
      ],
      [
        "▁king",
        -10.449946403503418
      ],
      [
        "▁ƒe",
        -10.44994831085205
      ],
      [
        "´",
        -10.4501371383667
      ],
      [
        "lig",
        -10.452682495117188
      ],
      [
        "▁seng",
        -10.452795028686523
      ],
      [
        "чу",
        -10.452995300292969
      ],
      [
        "▁як",
        -10.453333854675291
      ],
      [
        "▁más",
        -10.453381538391112
      ],
      [
        ".​—",
        -10.453471183776855
      ],
      [
        "で",
        -10.45371913909912
      ],
      [
        "iri",
        -10.453848838806152
      ],
      [
        "ਨ",
        -10.454740524291992
      ],
      [
        "▁дӓ",
        -10.455049514770508
      ],
      [
        "▁kak",
        -10.456345558166504
      ],
      [
        "ດ",
        -10.456933975219728
      ],
      [
        "▁ib",
        -10.457064628601074
      ],
      [
        "▁איז",
        -10.457718849182127
      ],
      [
        "▁amb",
        -10.457892417907717
      ],
      [
        "नि",
        -10.459494590759276
      ],
      [
        "ue",
        -10.459498405456545
      ],
      [
        "▁mail",
        -10.459677696228027
      ],
      [
        "▁Sang",
        -10.459879875183104
      ],
      [
        "Ti",
        -10.460277557373049
      ],
      [
        "ə",
        -10.460312843322754
      ],
      [
        "aja",
        -10.460370063781738
      ],
      [
        "▁gong",
        -10.460448265075684
      ],
      [
        "nas",
        -10.460471153259276
      ],
      [
        "▁koo",
        -10.460644721984863
      ],
      [
        "▁ram",
        -10.460732460021973
      ],
      [
        "▁sëmbë",
        -10.46082878112793
      ],
      [
        "▁tao",
        -10.461708068847656
      ],
      [
        "▁tua",
        -10.46174430847168
      ],
      [
        "▁lati",
        -10.461748123168944
      ],
      [
        "▁pot",
        -10.461965560913086
      ],
      [
        "ຂອງ",
        -10.462472915649414
      ],
      [
        "▁nè",
        -10.462862968444824
      ],
      [
        "▁Ida",
        -10.46377944946289
      ],
      [
        "▁दे",
        -10.463947296142578
      ],
      [
        "ရ",
        -10.46442699432373
      ],
      [
        "nyo",
        -10.464855194091797
      ],
      [
        "▁lal",
        -10.466036796569824
      ],
      [
        "iga",
        -10.4664945602417
      ],
      [
        "iko",
        -10.467079162597656
      ],
      [
        "▁kɔ",
        -10.467217445373535
      ],
      [
        "ली",
        -10.467239379882812
      ],
      [
        "▁آ",
        -10.467246055603027
      ],
      [
        "Ã",
        -10.46733283996582
      ],
      [
        "▁tri",
        -10.46804904937744
      ],
      [
        "▁تر",
        -10.468206405639648
      ],
      [
        "би",
        -10.468544960021973
      ],
      [
        "▁bot",
        -10.468809127807615
      ],
      [
        "mon",
        -10.469273567199709
      ],
      [
        "▁ez",
        -10.469284057617188
      ],
      [
        "▁fé",
        -10.469511985778809
      ],
      [
        "▁هم",
        -10.46965789794922
      ],
      [
        "▁vel",
        -10.469927787780762
      ],
      [
        "sina",
        -10.470135688781738
      ],
      [
        "▁ò",
        -10.470521926879885
      ],
      [
        "nni",
        -10.470681190490724
      ],
      [
        "lim",
        -10.47147274017334
      ],
      [
        "▁Che",
        -10.471535682678224
      ],
      [
        "mɛ",
        -10.471856117248535
      ],
      [
        "uj",
        -10.472121238708496
      ],
      [
        "▁rin",
        -10.47226619720459
      ],
      [
        "▁Pero",
        -10.472323417663574
      ],
      [
        "▁PM",
        -10.4725980758667
      ],
      [
        "tis",
        -10.47280979156494
      ],
      [
        "wen",
        -10.473121643066406
      ],
      [
        "ата",
        -10.4732084274292
      ],
      [
        "ns",
        -10.473353385925291
      ],
      [
        "ታ",
        -10.474064826965332
      ],
      [
        "▁seo",
        -10.474373817443848
      ],
      [
        "▁ماشین",
        -10.47441291809082
      ],
      [
        "▁بۆ",
        -10.47468090057373
      ],
      [
        "▁sen",
        -10.474756240844728
      ],
      [
        "▁बि",
        -10.474827766418455
      ],
      [
        "nɛ",
        -10.47492790222168
      ],
      [
        "leri",
        -10.47496223449707
      ],
      [
        "▁xchi",
        -10.475011825561523
      ],
      [
        "▁eno",
        -10.47515869140625
      ],
      [
        "▁لا",
        -10.475279808044434
      ],
      [
        "▁rok",
        -10.475386619567873
      ],
      [
        "ша",
        -10.475440979003906
      ],
      [
        "М",
        -10.47556495666504
      ],
      [
        "▁aune",
        -10.47568130493164
      ],
      [
        "▁ayi",
        -10.475794792175291
      ],
      [
        "dha",
        -10.476072311401367
      ],
      [
        "ako",
        -10.476475715637209
      ],
      [
        "▁mut",
        -10.477130889892578
      ],
      [
        "▁bya",
        -10.477436065673828
      ],
      [
        "Ja",
        -10.47750473022461
      ],
      [
        "▁tang",
        -10.477670669555664
      ],
      [
        "လီၤ",
        -10.47829818725586
      ],
      [
        "▁mung",
        -10.479174613952637
      ],
      [
        "▁leng",
        -10.479181289672852
      ],
      [
        "hua",
        -10.479700088500977
      ],
      [
        "П",
        -10.48020362854004
      ],
      [
        "▁ao",
        -10.480477333068848
      ],
      [
        "▁loo",
        -10.480956077575684
      ],
      [
        "▁bilang",
        -10.48116970062256
      ],
      [
        "▁lako",
        -10.481182098388672
      ],
      [
        "▁pero",
        -10.481271743774414
      ],
      [
        "分",
[...]
